/**
  ******************************************************************************
  * @file    network_data.c
  * @author  AST Embedded Analytics Research Platform
  * @date    2025-09-02T16:01:10+0200
  * @brief   AI Tool Automatic Code Generator for Embedded NN computing
  ******************************************************************************
  * Copyright (c) 2025 STMicroelectronics.
  * All rights reserved.
  *
  * This software is licensed under terms that can be found in the LICENSE file
  * in the root directory of this software component.
  * If no LICENSE file comes with this software, it is provided AS-IS.
  ******************************************************************************
  */

#include "network_data.h"
STAI_ALIGNED(8)
const uint64_t g_network_weights_array[24316] = {
  0xccafa143e1bdc8f7U, 0xadb6cfbadbbef5caU, 0xaac4f6adb8c9ccb5U, 0xdcd8c9eacdcd49c5U,
  0xbdb1b2c9cccaa848U, 0xb3caccd665bdb2c2U, 0x2206c7c3c2cbfbb8U, 0x26c7aac8c9ccbdc7U,
  0xd2bad820b2d8cbbfU, 0xf7b0c205c8b1c77fU, 0xc0ccb2c8cd36b2baU, 0xa5c3bdb204bb18d1U,
  0xaab8c8a4eacbcbd5U, 0xa9c3afb0b5acb8aaU, 0xcdd9c957a2cccc98U, 0xedd5ccf8cccbb8c5U,
  0x7b667a7c7b6a7b7bU, 0x7c4b73667c7d726fU, 0x656e7b776a7a6a68U, 0x7d7c747b6e7a7971U,
  0x5f64727b7e7a6278U, 0x7b797e7c7a65717bU, 0x7d7a7b7a75797d64U, 0x7c7d66637a7f5a79U,
  0x737a7d7d637c7d7aU, 0x7c6b667c7a7b7a7aU, 0x527e577a797b637cU, 0x6b6c7d64776d7b6cU,
  0x6e5b7c717c7b777cU, 0x537c5f678066676eU, 0x796d707a707a797bU, 0x7d7d7b7c6d7e7c79U,
  0x1f7fc6d0d4d5b625U, 0xb9d2cfd9d7e6deedU, 0xd0dadbc8d4d3cad7U, 0xbcc9c5d1d8dfd7c9U,
  0x13e2d1cbdac9f8cdU, 0x1ac7e5e70accc6c4U, 0xd8d404cddef729feU, 0xead3cae4c2b8f5d0U,
  0xd2db12c6f4c206e1U, 0xcfd4eb06f3f0e3ebU, 0x2bc5dedacff4d9e4U, 0xc30205e9d3ce08U,
  0xc8d9bcbdd9ec1143U, 0xdbc9c3ccc011fcd3U, 0xdab8c8dc1adaa9efU, 0xc9d70804d5db0bedU,
  0x706a4f5b696a2565U, 0x804e696c61636b79U, 0x65576a6956786559U, 0x4c5c6f73526d5330U,
  0x7b6a6f5d70666a6bU, 0x5a6d5c6b6154526eU, 0x5976657564756e6eU, 0xf86ef962cc6d6a62U,
  0x5f56643c695e5d64U, 0x5c6e6f62375b685aU, 0x5869776f6d78636eU, 0x5677476f21704955U,
  0x6173fc4e66707064U, 0x4f7c0170f9585b5fU, 0x555895385964597fU, 0x50617a597b5a7566U,
  0x25a1fd64aa03f81U, 0xdb1231ee09222d1eU, 0x24052107180b222eU, 0xa634f72f03b707a3U,
  0x38f2b37f1a3866d9U, 0xec08252bcc792b03U, 0xff39ebcf32d1fa53U, 0x5d9cda81f0115debU,
  0x4eff060d1d1a072cU, 0xda1226f3c7e1210cU, 0xa8cb2dcef92c2928U, 0xc8fa1a81b9b63be3U,
  0xceee7fb02e6f904U, 0xf904fafaf5f802fbU, 0x90517f80a0bfafdU, 0x7f67426d5c3c526aU,
  0xcc178afc0c5c4606U, 0xd70a1edd3cc427a8U, 0xe8e8b20f1a46c72bU, 0xcd1445bf7f6a4c3aU,
  0xac1f1302ddd329e3U, 0xf8e003eeeb0b05e5U, 0xeefd1fa87905e738U, 0x260c061c17fe810fU,
  0x192f04fd11f7f006U, 0x59011b1afcba0ff4U, 0x1618aa0e1c982005U, 0xea858ee914a7da23U,
  0x1c247b6f6858b95U, 0x41a2ac114d81b74eU, 0xd4cfea62f4e6f41aU, 0xe50be4e7f9f20d0cU,
  0x140ddb1ef3b9e414U, 0x507201a7fe0f836U, 0xff08ed2e342306efU, 0xbf9f31c0b00f9f7U,
  0xb2caffd4f71aee03U, 0xa581141e9481b4c8U, 0xf6fcd5dcdcd904c0U, 0xff16e30d1cf512ecU,
  0x13edc1af1d70e17U, 0x7fc8f63df3cd0c57U, 0xd9150faf1156b810U, 0xc4d001b1ef90225U,
  0x74fff75a062253f8U, 0xe4d8e2d4eb36c981U, 0x1cfe26310e0921baU, 0x4d7120804f02c01U,
  0xdef458226006061bU, 0xfaf4f34bff3d1bU, 0xfd20f4f60000fe11U, 0x24b600e9bdf6f8c6U,
  0x22fc1db9f617810fU, 0xeefbf61b0802fb30U, 0xd081eca12fdf3f8U, 0x99432ea6fd0bf0deU,
  0x165643520c3a027fU, 0x7f17e9d5f4f02750U, 0xd33ef1e215583000U, 0x4251f31f5d133726U,
  0xb41c31466ae0011eU, 0xe3db28d8d70bf181U, 0x3dd4d2de18bf20f2U, 0xb981775f1b690fa4U,
  0xfde1f137d4d42843U, 0x210714fc07d61412U, 0x1907171ff4eaffffU, 0xed1a9fdf1b3348f9U,
  0x1bd90e211d2c4de5U, 0xbc10d791c52fe1c8U, 0x81d61ca21f182110U, 0xcef62e230781d1d6U,
  0x1107f6191600eeU, 0xffe10efcf3e7130fU, 0x453b40062733ffddU, 0xf8a9447f3c1c04ebU,
  0x43803fa12f5ffddU, 0xe8d8c728111ffdefU, 0x16819c0cb5dafcdeU, 0xa53114add5e28df6U,
  0x3f24f92715e03c1cU, 0xd7ea380a1218f2ddU, 0x39818ca93ff0eb27U, 0x9f70be8fd29eaeeU,
  0xff0f12e9eefb08U, 0x2031f3072b0c0f0bU, 0x7505141081082622U, 0xe41820260bf53314U,
  0xe809f5092005fa20U, 0xe2bd3147f5e40909U, 0x2a1625ddb4040c81U, 0xd11c0ef527fc11e9U,
  0xdfe1af010fbf203U, 0x2a2c1a1625e60e17U, 0x21de443bb7aa8109U, 0xdccbf3e1d6fe0616U,
  0x4601fdfadacabdf2U, 0xb4849b8a1314f033U, 0x8681febb8ac3fe90U, 0xfa91629d9522cdfdU,
  0xfeb11be3d287cdf9U, 0xfbe8810207ad39f8U, 0x15e30806c906fbb1U, 0xa060a09090c030aU,
  0xd130706040302ffU, 0x2d5e7f3379319899U, 0x9d46b993a6204d2U, 0xe1440412e82062f3U,
  0xfff5cfcb38e8a3aaU, 0xe8110bf50c4e5604U, 0x25f50a1af90b170eU, 0xd2b2e6d4b00ef61aU,
  0x864e2e04aa81accdU, 0x4de9153ceaf92b0cU, 0x1de62700e47f4603U, 0x1673ea5953fd142bU,
  0xb7a5812af6e65e4eU, 0x3164d20428220155U, 0x1311e60513fc3a7dU, 0x1aff26f60de8eeeaU,
  0x63321c247f213371U, 0xf8fee5030b0a4fd9U, 0x2329e1d61de1e3caU, 0x2debd31cbf34201bU,
  0xf60adbec437f36d6U, 0xfdece9ded9faf5daU, 0xec1a1ce30d0719d7U, 0xfcd421411638430bU,
  0x108b29b3a21fe8acU, 0x81c7349ecc9d3d22U, 0xc19b31d1ea9639ccU, 0x4912f5e2ab8e4ebdU,
  0x8830473183bce3f5U, 0xbbcbfb9df5faf9b5U, 0xff22c83dda8381d1U, 0xddbe3c2b4000e309U,
  0x111414dce4f98114U, 0xb7f6c507e8d0ecf0U, 0x161fe2c9ecd9fbefU, 0xe716b50dd00a5099U,
  0xd718d8c710f9dd06U, 0xefd2117dbeee406U, 0x70f941d667f3a46U, 0xe611040b12f13118U,
  0xeb290b0808ffefefU, 0x7f01f639c50b1fe1U, 0x14e12781ff30f11eU, 0xfbeffd0e0c27dff6U,
  0xdf10ebf0f427181dU, 0x1accdf1cede5221eU, 0xc234b781e7170dc9U, 0xf8190ce2e30eed44U,
  0xdcca13d4caedd5U, 0xc52d3f11250bb91bU, 0x440f393bf9054d10U, 0xfe0ae3f3e5ea25e0U,
  0xcee4dfdcbdcde2e7U, 0x25060b81be81fce9U, 0xb0dfd0cd9eff4eeU, 0xf5150ce925f40b02U,
  0x4e062a1bee0603f2U, 0x40bf2f3f366b3439U, 0xc4f746f71aa8437fU, 0xb9b3daedd7bff4c0U,
  0xf44ab23112022e0cU, 0x1fd97f11985db59bU, 0x170625f131de08feU, 0x5002f15b0f252b24U,
  0x8b94fc2f036720fdU, 0x8112b04d9109a694U, 0x92c4afa905603a19U, 0x9e9d654a103f416U,
  0x1ec7ca089ea33be8U, 0xc92207c5e52bf3f5U, 0x438183debbf18e2eU, 0xe818259593b3a331U,
  0x404e5eebf80eaee2U, 0xfed2e5b088cd27bdU, 0xf6dac738f4fb00b7U, 0xa7c781d416bdede2U,
  0x8fb18072681b1abU, 0xfded21fa06fa180eU, 0x3f1fe0b07ff0c09U, 0xfe2fc152a10fd08U,
  0x1c2ff8e12f7f12ebU, 0xcde9f918f2120bebU, 0x4f6f20d11fb0decU, 0x9f248f0e0b242be6U,
  0x1b814349c2c0ce9aU, 0x43afd89ff81b3549U, 0x38cd271fc641c4c0U, 0x3dc6ab36cc8123c0U,
  0x5eefcfdf00b0810U, 0x30f5e4020bc90827U, 0x443c4a2c211e05f2U, 0x3a7f155cfc572c39U,
  0xffc3c8d92ada2532U, 0xec0803605c393b3cU, 0xe3f23733f141311eU, 0x9401b67f1a116835U,
  0xe51e430ce0fa19adU, 0xfc16c3b2ebd13b05U, 0x8c14138167faea03U, 0x3941d82709d9ee94U,
  0x15c41509bbff20e8U, 0xbd130ec823f8020dU, 0x751d502eba3e1a01U, 0xbf327902e87f4e6dU,
  0xc25b8ba2ca51c21U, 0xf1c1fb2ed40262f7U, 0xf1e0195e0811d71bU, 0x1b320bf9f6fe2709U,
  0xd109e11e0a2c1efaU, 0xa2468af781cc02a8U, 0x2e0644bae8d051aaU, 0xbd0f322ef002324U,
  0xbed404f7da0c2db6U, 0xbc199dc4097f530fU, 0xa520fadd04ede9bfU, 0xd015fc2effe9983bU,
  0xe2cb165881dcd5f0U, 0xe0df5430cef2941bU, 0x1c3ea2c481234ed3U, 0xfdefbdfaf932120bU,
  0xd488e3f1e70bfcfcU, 0x3ad767c5e3cf35c2U, 0x9a4ed080cf12dbeU, 0x54221ad2df160325U,
  0x833634ae1dc2de7fU, 0xc0b2603ff191b11U, 0xbaeafe02ea03ff08U, 0x11111aef1de8e228U,
  0xc4f839b801487f09U, 0xe15f1313ee23520U, 0xd5ee1cefe5efe7cdU, 0xa9d4fe8116eeacf5U,
  0x1067ff9fd46d22aU, 0x2f20c0fffeef901U, 0xf5d40527ef1f4303U, 0xcf040e0c0b1ee7f4U,
  0x9fb81bfcfaefa2dU, 0x3dccef3cb7f027d0U, 0xd0bc24c799f3a306U, 0x16febcf14617abedU,
  0xfaf1d98637113ca3U, 0x9d8116b3cef6d908U, 0xf450a335eb8321faU, 0x3e0734d8051ffaf2U,
  0xdf2002f32127fd7fU, 0xee040eddc1e907f1U, 0x36110a2610fe3014U, 0x137fc9381a3d82eU,
  0xfd1308fd0d252c21U, 0xe703ec010b0ae202U, 0xa32341d06eef7f6U, 0xc9f8e6167ff2f539U,
  0x12fe15122213fdf7U, 0x1f009f9072ef70cU, 0xee3306272f1015f3U, 0x40631ed81196cd2U,
  0xe3210cd61506e405U, 0x70de6f903c5ea14U, 0xd7441facf6f923d0U, 0x4600b4d4f215db9cU,
  0xdfca1893cc2bc8f8U, 0xa5091b7f11d522a0U, 0xcb32050402da1b50U, 0xa01c00e12c3030fU,
  0x2cb91412ba0cf9c3U, 0x85ee1e81051b8a0aU, 0x1f3f81a4a4e50d1aU, 0x3cc0309c91509adU,
  0xff6f5badbfee307U, 0x1e9cf30707290bedU, 0xa741fa557f46a5faU, 0xd992ff0ff1b0e93aU,
  0xa893e2223fd104c8U, 0x7f14ec0de8981091U, 0xba0ba1a0d4c85c4bU, 0x1b17fe22181304e5U,
  0xce7cc06f70611f7U, 0xb09f8f212b009d8U, 0xe581ee8808c50e24U, 0x38885e78dde6d5bbU,
  0x93f1f18b81f5adf7U, 0xe4a8e0ba90f61481U, 0x5302d022b26c7f5U, 0x17070616f3e92518U,
  0xce242f160a3c1c03U, 0x223a13f7e4f1bb0dU, 0x51114f60d26f915U, 0x37f80df0fd06f20dU,
  0xe3fb26e1d8d981e6U, 0xe3edb21af61b467fU, 0xf1429ea29b4f3f7U, 0xfdc036d4d8dd23eaU,
  0x86a6aae60442bf3fU, 0xbcf4257f78cf71d6U, 0x231fea14a1ed172eU, 0x501a6e070e39e0caU,
  0x83952b2b2fd0f619U, 0xaad80b06ccd7fe81U, 0xc42fff28f8e50b02U, 0xb863e3da3bd005faU,
  0xe0fc04df4dcfc1d6U, 0xd3c72c3fd3eee134U, 0x65f6070807e8ea1dU, 0x5d1b811c037f07dcU,
  0x18f8460eebf54f15U, 0x8c30e3af4fe20222U, 0xbcc2e8f7eec1f4feU, 0xe8c793b722bfd882U,
  0x17cc0a34a1ddfe81U, 0xc933bab836fdbbd8U, 0x421123ea5ddca421U, 0xf30f062a0504f781U,
  0xffcce6e7cbe3e4U, 0x11e6dcf3f4fffce0U, 0x2cd9dff4fec607e0U, 0x240f1e163819cad6U,
  0xe7f423f7cff4e0feU, 0xd973f8ca322bee04U, 0xd9c9ecd1abe37f10U, 0xae0be0a9a1dc485U,
  0x3c949335819fd8b2U, 0xfc922a05f4b255d3U, 0x17db381608d24788U, 0xf1f7edff033be4e1U,
  0xbdee625ca283d3fU, 0x8113ebbd29f8df32U, 0x1d07f800a5030b81U, 0xda10180110f9240cU,
  0xe6f1171418020ef8U, 0xef24fcea10f00317U, 0x83b30b81060b9907U, 0x133bce3e39c00416U,
  0x38fc0a45ec1241f3U, 0x1f1f0981e7280106U, 0xf0120f1801ff18e1U, 0xe100fffa101412ebU,
  0x16ee0144f8021913U, 0x86b50000fa0be6edU, 0xc51491d11b81c715U, 0x249edb1b9bcd2289U,
  0xbfe520aede1dade2U, 0x27107fc4f03fb8fbU, 0x1ef1e818f722f9d7U, 0x14d41b05e111fa07U,
  0xd823dce039ede904U, 0xf305010be1d2e827U, 0xcf1f20912eaca20U, 0xa0401f700e40114U,
  0x286681fb7f54ef11U, 0x4ed20a0a0dfa103fU, 0x2f4dd2502e7daebU, 0xccbb5301f20bee1dU,
  0x476a7fe024f2b9b9U, 0x6ede5dcc6d7ee27U, 0xca2aff05f2fdf6e4U, 0xec12ba0c161e1c01U,
  0xb69a81cd09b6cc4cU, 0xf62a27013270d0edU, 0x3b36eb4d22101e47U, 0xcc03fff83ce329faU,
  0xf70e81fb3d960e28U, 0x10cd2b03bc311a98U, 0xe7211fd60f28c700U, 0x38d8295480d3427U,
  0xbebd7ffdd35b3d3U, 0xf10fde10ead7c907U, 0xb60296251ffa2ffbU, 0xb248810d0e8abe81U,
  0x28d11a3ccb06338aU, 0xe3fb27d50246d7e4U, 0x1c23de191bc2102dU, 0xd0bc6c7f58fdf907U,
  0xfd0608f0dbfef9dfU, 0xf4f0fc22eefb00eeU, 0x715dc37c62b33f6U, 0xdd0d2fbc61464cccU,
  0xcd11edd902d4f334U, 0x1902a70981aa96f5U, 0xf6f21981aeb8bdc2U, 0xffe703e5de44090aU,
  0xe903fe02fb01fe03U, 0x32dd1efd010c050cU, 0x63320808d9273d4bU, 0xdf9e9f800d4fad8U,
  0x16e1d7f20af2e7e8U, 0x3c7f0b152a0cf3fbU, 0xfdcfbbdc388e9552U, 0xd33ff00d0c172ebdU,
  0x340d094fe40ee6f5U, 0x4bcf7f334b1d5804U, 0xd2140af83110fab2U, 0xd7ede7dde20e0615U,
  0xfb4709f8d305e410U, 0x3410a8461a3a7f27U, 0xee94064dd3886647U, 0xe6e7b9322812dc3dU,
  0xd5df09db2259b91bU, 0xcaa04231d5347f10U, 0x9073413c9070cccU, 0x3d88df0ff64ecd22U,
  0xfccc47f1c27ffcffU, 0xe63a88a4bbf82ccaU, 0x859c011f70762d4U, 0xb56cd60d20d01b2aU,
  0x2ad98116d4ad4c0dU, 0x131c12fda9a2da0aU, 0xe8fb0cd4d90c261fU, 0xe455ead018d4172eU,
  0xc2e1ac81744a7f05U, 0xd702a306ca261d1aU, 0x2bd1db3b60000U, 0x33d919002ed2c90aU,
  0x3b9f132a09be7729U, 0x635db121327f0deU, 0x16bb3ed7fb040317U, 0x7f564d28e6f6d80fU,
  0x3c644a3431e12038U, 0xf3f64e272d637f10U, 0x2107164914e72543U, 0xa1ff5a3f0f3e3245U,
  0x30e7e7ab45c9b5f5U, 0x50fab2fde881438fU, 0xc656d6efb4ad180bU, 0xd7d6f5824de950b1U,
  0x9b992917d4fe2aaeU, 0x37bcdacf11f105dbU, 0x26bc8ffd81e0b94cU, 0x135b7f939442afa6U,
  0x163231202ded59d8U, 0xd6e5104dff0f2f45U, 0xcddd58c9d806e3bfU, 0x3035810ed01c0729U,
  0x4c5d5edea130aaeU, 0xda2ef6b2ceeca3cbU, 0x6b7e613f6dd3602U, 0xc10bedae00e38102U,
  0x1404ef1000d717fbU, 0x4000df6060c02fdU, 0xee10ffcb16090609U, 0xff130a0709241719U,
  0xf22b1b02fd1825e7U, 0xebd5be01e3de3207U, 0xd417eefcf0f58581U, 0x70189f0ead06f9e9U,
  0xbe0119d881b4f7a1U, 0xc82a1ddde51791f1U, 0x14ff8ac1cbd2d233U, 0x5810cece0311aefU,
  0x2cc20eebf19b3b1U, 0xf500cdc8d1e2b20cU, 0xa2428c81cffbd06bU, 0x694383ee5902b09fU,
  0xa2d42ba33aef2de8U, 0x8da425c1e9b7e815U, 0x3fd24342b6c5ad13U, 0xa408cc09c7f735bdU,
  0xaeb8151d6b3a523U, 0x81ff1291100c1000U, 0xf06fdfefeb51408U, 0x21f10603fe0dfa02U,
  0x150216fc1110faffU, 0x201fceb7fd4e032U, 0xd5f732f4e82603e9U, 0x17061ee8052226f7U,
  0x8189d5e227e9f8f2U, 0xcbd094d0bbaea192U, 0x2f2c10f6f3eef1d1U, 0x1d10ebd21fd2191dU,
  0xaf9eb481f30ad7b4U, 0x600ec270dc20004U, 0xe6e5040aeff8080bU, 0x1eec071701031a07U,
  0xf67f2124f9101215U, 0xedfb0203f40017e5U, 0x21711d8f61e1d23U, 0xe00cdef02cd6fc1dU,
  0xffffea23ffffed49U, 0xfffff672000002fdU, 0xfffffd6cffff87c1U, 0xffffd6a500000765U,
  0x16500000258U, 0xffffe777ffffc59cU, 0x1f5000004acU, 0xffffc87800000c05U,
  0x3990000057bU, 0x47dffffd526U, 0xfffffd8dffffff97U, 0x78500000328U,
  0xffffdaf60000002fU, 0x16bffffda9eU, 0x1b1ffffe700U, 0xfffff2d2ffffc319U,
  0x85cffff9168U, 0xffffea50ffffbe77U, 0x469ffffa068U, 0x7080000072aU,
  0x3e3ffffe37cU, 0xffffa07400000302U, 0xffffbfacffffebbfU, 0xffffbc7bffffa48eU,
  0xffffe62700000596U, 0xf7ffffb80cU, 0xffff9b0fffffb891U, 0xffffba4dfffff920U,
  0xa7fffffff74U, 0xffffc4bcffffea78U, 0x84e00000707U, 0xffffcd71ffffc993U,
  0xffffb7a9ffffd37bU, 0x8cbffffe82aU, 0xfffff28effffd557U, 0x289ffffb160U,
  0xffffb51afffff131U, 0xffff9a10fffffd39U, 0x466fffffeb5U, 0xffffd92a00000694U,
  0x852ffffd105U, 0xffffbef2fffffa11U, 0xd51ffffee16U, 0x949fffff044U,
  0xfffff8a400000270U, 0x24700000352U, 0xfffffaa90000069cU, 0x55400000440U,
  0xd6ffffef00U, 0xfffffc93ffffee8bU, 0xffffaf46000002a0U, 0x2c3000006d7U,
  0x4de0000073aU, 0x612c00000b68U, 0xa2700000b11U, 0xf36ffffbc25U,
  0xffffe528ffffceeaU, 0x6a9ffffd9f0U, 0x160ffffe624U, 0xffffd33d000002f9U,
  0xffffaf68ffffcbc2U, 0x1f8ffffdcbaU, 0xffffdf57fffff2d2U, 0xffffe3f3ffffe9beU,
  0x25da02cb0a13c7ceU, 0x1eddf903edf3d706U, 0x1f6e401f91502ffU, 0xf0fe0708e91403c1U,
  0x9f01f19e314edbeU, 0x381de3fce5ba19efU, 0xe2e2d816021e10f6U, 0xd8ee09fe21b606f3U,
  0x30110be800e83220U, 0x12eb04c60512150bU, 0xf311fd292e0efe0dU, 0xfa0308fa21fe03cdU,
  0x5eae50913370100U, 0xffe6fdd20d0ef513U, 0x508ee18f0f915f8U, 0x1fe3faf710ced9feU,
  0x2206d5120fdecbe2U, 0xe019bce1e5e3df3dU, 0x87f7f2f8e649d522U, 0xf4c7f2d8380df5cfU,
  0x26f43424f2f416fdU, 0x3125eef30d06c9f0U, 0x3310f2d40522cee2U, 0xf2cde1f908e5dee8U,
  0x7e1ee7deb7a6f910U, 0xfc23a4f20e011617U, 0xf0efc2c23efed0bU, 0x25bcfbb675cb25f4U,
  0xe50f040809175801U, 0xc206001bf4ef3407U, 0x25d91b01d82e11f2U, 0xe70009dd71f5e8f1U,
  0xd04af081693f807U, 0xe8fcdae8dddff200U, 0xa40aeebed435d726U, 0xfc05dcec032211f0U,
  0xfe721f30f17c9eaU, 0xe10ed4f1fff5b8fbU, 0x21ff09e7f302ece0U, 0xf9efe80b1005fcb2U,
  0x39e4d9ffd217042eU, 0x6e9f4e808050427U, 0xde0efffe283d2c02U, 0xc7a40be74cb324deU,
  0xf6d9efb40a0643eeU, 0x1cdb210b25cd0c0fU, 0x2bb11f7dd0c06e7U, 0x1b0621c877fcfc04U,
  0x324ae90b01e601e2U, 0xdefbc22ed6e5d1feU, 0xbd2efbe31ff12bedU, 0x8edda140c1b25e4U,
  0x4d4effce519c149U, 0x13fbf1f32ff0eefbU, 0xfb0914120823e81cU, 0xf906fdfb2adc0fffU,
  0x2813f9ee2ffc1d41U, 0x2cf09f316dc152aU, 0xbeb040915291e22U, 0xd2c612bf26dcfff3U,
  0xc0ff25d1190e04f0U, 0xdf032153ebe2e714U, 0x11e7f11bf8131815U, 0xbf00ef35c01ef03U,
  0xfa1ec6fb100d160eU, 0xd0db113eef4f50eU, 0xd53df6dbea1fed08U, 0xf70dd1200013f1edU,
  0x2cd819f4cd0eea0eU, 0xc23f40de9e2f620U, 0xe160efde90b243aU, 0xfbdfe6131f00f90cU,
  0x1015f2084f1b24fcU, 0xfe0109ef13c4f318U, 0xe1d9e71c250b17e6U, 0xebb0e9c02ad10bf7U,
  0xe012d9cefe19f6b7U, 0xd7f6f002cadeee0fU, 0xe7fdfd08ee3417faU, 0x1b0813f37ff5fb27U,
  0x1852e62d0a190fe5U, 0x16ffe012fd04fc08U, 0xdb00f2f20c1cf217U, 0xec05fd05dbf61cf5U,
  0x39ca1801e818f401U, 0xffaeaf10500ebfaU, 0xe0271308f32e0934U, 0xcb15d8ee07f1e301U,
  0xfa0230d412210f07U, 0xecda0316d7ff1a15U, 0x3e31036e63ccf00U, 0xfdc6fc010604f913U,
  0xca231af30d2401faU, 0x18dbf525ea070514U, 0x361cf12a0a2e2c17U, 0x18e41e482ed5fe28U,
  0x19dd0afcfc00f2U, 0x900e102fa2100ffU, 0x83a09d91f0f3717U, 0x30207ede4030511U,
  0x20b0cf5f20ffa0fU, 0x13230b051b0cfdd8U, 0xc7181209f604f824U, 0xf2f8ed1a2b002cceU,
  0x100a12d42c1b0102U, 0x4cfbb0609f21532U, 0xe2de300f0805d21dU, 0xf0ce2f2eff0b0c09U,
  0xe21b02ebf133e6e6U, 0x25f20ffc19dc1702U, 0x2c01e8270110ff2eU, 0x100519db0bf7ddf3U,
  0x21fe00e604050f1dU, 0xe0f414f3f1e7ff02U, 0x180f18f429040eU, 0xebf100deeb2e1410U,
  0xd2020df9e22c1110U, 0xa0cef1110e72ff7U, 0xcb0817f6e40bf4f9U, 0xb9e21ee91df609e2U,
  0x111406042a14e618U, 0xfc01191d17191b10U, 0xf3ebf51c1c16ee25U, 0x2632f0fb04f321f4U,
  0xfec0ee1f41ae1ddU, 0x5f803fd180dea1cU, 0x22ed122018040a0aU, 0xece01d602eafb26U,
  0x12bd1beb23142afdU, 0xde6f7c7efe8162dU, 0xffc0dfbde19db2eU, 0xf72513ff070d12e4U,
  0x5af121d1ee0f1d10U, 0xf01dfd081d00e8f8U, 0xeef91415f80ae2f0U, 0x21ebfb2227ee1be9U,
  0xdf0db2306180218U, 0xffaf71e100af504U, 0xd9fa2d1820ea060bU, 0x18f1f0fc0a1e09f1U,
  0x19000d20f51bf11cU, 0xea06f2daef15112dU, 0xeaf90f111a250706U, 0xffef11070d02f301U,
  0x1a11e9f9f4f34ef4U, 0x28d3ce03efef0f18U, 0x29f244e50709fad9U, 0x13e4f922150b150aU,
  0xf908eefee3e8f200U, 0x20ebdb14fc04f008U, 0x1e21051e0e0c03e2U, 0x22e91c140b01eddcU,
  0xeb020c0ce70a0413U, 0x2b09da26061e680aU, 0xddfc1c1a1726050bU, 0xe8ff201c10f211eeU,
  0xd4d70af308183116U, 0x14e521c344d20e02U, 0x31709f7100010f2U, 0xe70c1331ecd6e602U,
  0xf685d901149ff8d1U, 0x37b0f3d6e43f3134U, 0x88be1cddb107a668U, 0xccf0dcc822d1e8aeU,
  0xf5cb09e2f0d2fb0bU, 0xef6d9bc38ad4e02U, 0xc3d51102a4e411e5U, 0xf4c7e08ed3d90520U,
  0xedc1fcab1f1201dU, 0xdad38eb021040e7U, 0xca2caeeb07d218e5U, 0xffdd48fc03ae2d09U,
  0x20c3fd14d9141816U, 0xcffda0b93f77c8f6U, 0xf6e00a78cff4107fU, 0xd5faff33fc1004f1U,
  0xdcb4f9c60dd004ebU, 0xc6b72e332f1b2107U, 0x39f7defbb4fbd210U, 0xcea002916e3e50aU,
  0x2f00f10bf0eaf8deU, 0xbc30468f2d4f0fcU, 0x37d709cc0103a9e7U, 0x409e730ecf540ffU,
  0x21043fe9f0d2f4ddU, 0xee07c6e8f612ea00U, 0xc2fbe8face0e33c4U, 0x1300e7430dd8fd07U,
  0x19e2fe1ffe06e5e3U, 0xe914e11f1e0f1315U, 0xe62906f92fe90932U, 0xb324ef2c212520e2U,
  0x4103000f7f219dfU, 0x1e2f083a2d0d03fcU, 0x142dffef3af032e0U, 0xf4baff4510f3371cU,
  0xc5fef0e419cde0e2U, 0x10d1d72309e3260cU, 0x7d9efeb1ee2fe24U, 0xf51e42f4d9f43fd0U,
  0x1df14af61c202113U, 0x10cc2ce1ecc92509U, 0xf2fddcfcf7eedc1eU, 0xc8392a26ec2017f6U,
  0xf7c7bfc5fac5051eU, 0x3524122c3001cb16U, 0xeb17f8fde2f2094aU, 0x4421f5e621f8feffU,
  0xe4f5fdf40639e033U, 0x2616ef1d25e3f422U, 0x2239d4f5ec1b161aU, 0x300eeb3e0c7ecfbU,
  0x3021edf4f5da1cddU, 0x1915dc2407ead509U, 0xded7e208f5df0342U, 0xe421f1f6db01fafbU,
  0x901e7d7380a05eaU, 0xb1e14fee4db01baU, 0xd11e13ca15e01014U, 0xfd221213f6de19e8U,
  0xb1d182f00eeff10U, 0xd73a13dacaf90348U, 0xd91608fcf723f220U, 0xf0fa2ff4311e3fdeU,
  0xe202f6095b29df23U, 0xe35110ded0bf0dbU, 0xf205f200f9b80414U, 0xdeec02c3f4f1151dU,
  0x16d32b1ef5c3f9f5U, 0xd31dfa15ebffee32U, 0xfedecf909f912efU, 0xece6e526ec36f21bU,
  0xf6e106c4ed13cc1cU, 0xc8d6e0ef0507e8f7U, 0xe802e4e6d4cfebd7U, 0x1fe3f1d8ea04d41dU,
  0xc081cfa04110becU, 0x618e91015f40a09U, 0x2330232b18f022f3U, 0xfcddd8c81a24fc2cU,
  0xe8f9b645d6fbe201U, 0xa1ffaf7fd1d0bf9U, 0xf419e644d0c0e208U, 0x5cd231e0b08f0f6U,
  0x20eabf27fbd8eee4U, 0xa7f11042ccd21201U, 0xe2e21705f6f9d135U, 0x2815fdccd6fb3e6dU,
  0xefb12e41504f702U, 0xe1dc2dcc07eb03f2U, 0xf1fd18f8dfc93513U, 0x1107e2fee3eda6e1U,
  0xcbc0bc2ce8d6f6efU, 0xdb09d903e40ac9f9U, 0x1b351e072014c034U, 0xe0e60af919ea2a08U,
  0xbfe10f33714d7efU, 0x13121b1224ede4feU, 0x112e041ff4f604c0U, 0x1413d0c928fedffbU,
  0x19f8101856e8eb03U, 0xbd10e011cdfc902U, 0xcd0d09f8d113f0e9U, 0xf8160f2e0afd391fU,
  0x1a18272afcf1abe8U, 0x295523ec0fe0f101U, 0xfb34edffd41bf516U, 0x8eff129dafebcefU,
  0x18201ac51fea16f7U, 0xf53e532beb031620U, 0xc2df14f807c8fd03U, 0xde0fe9e24308f7f5U,
  0xdbee04460b2ee500U, 0xf2251f09e3e5c10eU, 0xfafbce2728c20bfcU, 0x1bdf14fb26e30602U,
  0xed4711060c1c0b15U, 0xb1deb1ae037f323U, 0xf9d4cffa0cfcda30U, 0x41e81ae3e6431820U,
  0xeff64cf3070ae1d6U, 0xfc1925f4f9df20feU, 0x1f23e20ef5f91b1cU, 0x91b15f4e7513d25U,
  0x122f023227f20d02U, 0xcf7f1eba34cff13U, 0xe3e115ebf50ff225U, 0xe3f2f8bc1e11e4f9U,
  0xdede2cfdf600f7f4U, 0xac26f4ecfaf9bee7U, 0x3510da09f3d11221U, 0xf2fdc736ef03ec1cU,
  0xf2fd11d31e09e7fcU, 0xffef1df2c510dc04U, 0xc1e004c60e2402dfU, 0xde01ddffea04e812U,
  0x2e64706c6ea28b9U, 0x27d8efdaf32afd02U, 0x82cbb09291606e9U, 0x6f4440dddf716e4U,
  0x2903150e03fdeb20U, 0x280cdf2bfde9ebf0U, 0xae01a1fdbef0d05U, 0xe300170afdf6e337U,
  0x14166308fb0f2a0fU, 0x9fa15ccc1eeddcaU, 0x1a21ddf61d1119e8U, 0xec05ee02ff0def1dU,
  0xec1f2d314e8f2ceU, 0x26eb3cfc09df13deU, 0x1df1e6171a0e0fd3U, 0x9f42c13dde33cd6U,
  0xd2154a0ef900f004U, 0xc4c10ebdd7fed904U, 0x241ae435dd6cd0c8U, 0xdf2ff9f0e8f51f23U,
  0xc7ed03caecf51c19U, 0x47f01df6063cfb12U, 0xe9e406eff5faa327U, 0xdaffddfaf6b3fbedU,
  0xda03ff0cdef2c20cU, 0xfc0fe5f5f70afcebU, 0xe8f71c00fef603d5U, 0xe7fef3182302ec2aU,
  0xdaf4d800e9ffd71dU, 0xdb060e0f17ffb217U, 0x110a1f080d032bf8U, 0x105dbf722eadfe9U,
  0xfe19edfd10f5f806U, 0xc802e21d17fd20d8U, 0xfe801f4e4efe518U, 0xe7fa07f8e2f8c81fU,
  0xdf0902e4100df1d8U, 0x501090507d5febcU, 0xa013cebda0b06f6U, 0xf3fc050f0afa0302U,
  0xf53bf34dfd240dfcU, 0x2529d8fb0edf011aU, 0xcaf1de0ef30d1600U, 0x2291a131deb092eU,
  0xfaccf5fef8140e2aU, 0xfd0ff1f41623d8fdU, 0x26e2132a11091f24U, 0x1e15de09f701e710U,
  0xf4e409e02216f904U, 0x1610e8d703f8d805U, 0xf60e1af605efe6faU, 0xcdfc5c3f00cd047U,
  0xee2ef1fee8fae7e1U, 0xcf1bee22d4e231e0U, 0xec0714f00019ff21U, 0x1d00040e20180ef9U,
  0xf803ecf9060e0413U, 0x9fffdd900ef02feU, 0xdff3f50702f5eae8U, 0x14d4111a0f1cec02U,
  0x14dcf92220000403U, 0xf60de90aefd3fbU, 0xf2efdd06f2e9fd12U, 0xf202c80af402ef0eU,
  0xe5f1f801170b1107U, 0xefd09e002000aedU, 0xfdfaf2fdfff304U, 0xfb0ceadff101d018U,
  0xd91feef2f2020207U, 0xfcd6ee3af7fc1dfcU, 0xd0204eeeff6e502U, 0xfe0e1d0f000c0be2U,
  0xfe170beaecf40bebU, 0xfae90208f3f8fafdU, 0x214fa15f5fb03edU, 0xae30e000006f21eU,
  0xece8d5f725f7fb1eU, 0xaf40bd505e3e626U, 0xf9f1fd081806f614U, 0x1f4ee0403ef0516U,
  0xdf040df10beef00eU, 0xa0b0be3040ae206U, 0xe40b0be9ffefe8fbU, 0xebefe5eff108ea48U,
  0xd907f4e7d203fc04U, 0xf7f0021affe910fbU, 0xf72e0f01f70df805U, 0x5f6fbfd06f32004U,
  0x82407f0e2f30508U, 0xd150e1708ddf902U, 0xec160f11251b2510U, 0xdffcf21804f9000dU,
  0xe3f915110cfa17efU, 0x1afdf7e6201c1320U, 0xf60405040a00070bU, 0xec1f01dd110706fbU,
  0xfbf10a030a07f305U, 0xd4010305faea0a09U, 0xea1adf03f4fdf401U, 0xf41509f5edf70d18U,
  0x933f6fbe30a0d0eU, 0xf6ea0d010cf324f2U, 0xfd0107f7eb070000U, 0xf8f9e701081202feU,
  0xc16f1d6fb090920U, 0xefff2b2912070e0bU, 0xe1ed06f70c06090eU, 0x19fe02ec181c0315U,
  0x12f31e0505e810f3U, 0x160413fbf615f0e7U, 0xf11211f916000611U, 0x15fefae903fb0fe3U,
  0xfee3020a0701f0f7U, 0xa071b1d11dff8ebU, 0x121501e707e81c1aU, 0xefd09dadb271817U,
  0x1b120d0412e6f830U, 0xbe6fd14fa0a2709U, 0x9030de8e6f91702U, 0xf91afc0d1606f5eeU,
  0x18de06e700091411U, 0xf00010f5f728f60dU, 0xe14fbe5d6f0fe05U, 0xd3fbd3f6ecfffa04U,
  0x8fb0800fb1bfa01U, 0x13e8141bf2e2ddfdU, 0x290804f31dfae515U, 0xfbf30b29edfdfff9U,
  0xdf191aec08e1f0f6U, 0x260df308f907120aU, 0xe8eff116fff12af3U, 0x1106fd25e6060204U,
  0xff8ed110b0cfe11U, 0x508cc22060b0204U, 0x9ee0ce8e900f608U, 0xcbfbf6fafafbe306U,
  0xf803f1f800f51cfaU, 0x321f0f026f607fbU, 0xef02ec0611fbf8e8U, 0x6090707130e1e0aU,
  0xfdf9d8fffce7f3fdU, 0x1402061ff6df01dcU, 0x1f0ef8faf6ecf702U, 0x7e304f0f1fcf71eU,
  0xe701181107f3ef00U, 0xfdfcf5faf2f825f2U, 0xebfee6f2fa2701fcU, 0xf4240f07e9dff028U,
  0xd5e7f8f7fdf20514U, 0xe8ec0107f5ffd5f3U, 0xfef082ddd16ede8U, 0xd0a02eaecddf923U,
  0x9fa1afbdc0115f2U, 0x6d4ecfa2c0f2321U, 0xea071306d100e5f2U, 0xfdfe2af30bfeefd7U,
  0x5ee0fd0511f80ce8U, 0x14f9feec07d3ee0fU, 0x2402f51fd5f809efU, 0x12efc912f1ffe921U,
  0xfc0d1af40f0713f7U, 0x1801edeee5300c1eU, 0x10ea0704ee0cd2f4U, 0x1201c209f2e8f4e9U,
  0xd0e507fee519f00aU, 0xd8fbc3f3ef1ef2f7U, 0xfd170bf90f0c1118U, 0x13ff0410ed1205fbU,
  0xf5fbd0ef01fd15f4U, 0x1dbddd2c30ed36e8U, 0xdee1fb09ddffebdfU, 0xd0f0f120df704ffU,
  0x24cde3d30bec041cU, 0x7f9f8e604dc0206U, 0x1cd80714d0f00ff9U, 0x208bafdeaee07f1U,
  0xf2d73326f8f6f11cU, 0x34e619fa1c22f9f9U, 0xf501fd04012f81e6U, 0xe4b3c6d7f50b0e2cU,
  0xc4dcecb4dc0efff7U, 0xfff4fdfa32cbdee3U, 0xff2909f5ebf10506U, 0xfafafd1ffa08e4e6U,
  0xe1b02e921fd0201U, 0x811dbbe7d6f2f8e0U, 0xf1ff0a111408dfd0U, 0xd30106e313fb0422U,
  0xcdede2cbffff100cU, 0xe814f598051ec51aU, 0xeb1613ccbf0cfcf9U, 0x5effa1218e903deU,
  0x131a0e02f60df717U, 0xff1bfdf70ca8f2f4U, 0x1308160e2229e8f3U, 0x9cdbec0f01bc420U,
  0xd9522cdf100f9f08U, 0x40f0f19d2e707f4U, 0x21131bcaed2f2301U, 0xdefe09f0cf131906U,
  0x1c09f109111fe4fbU, 0xef08070bff0df41bU, 0xf8dfc3e8f80826f2U, 0xf1fb07ef280b0311U,
  0xeafdee00e4200116U, 0x220febf61f09e215U, 0x1240d101723f3fbU, 0x6f1e4f307010912U,
  0xf31b092200f7ee11U, 0xfb1ee3d617e1101aU, 0x12f1f01efaf10219U, 0x2fbfdc4fc15cb0dU,
  0xfc1b14fdf30b10eeU, 0x1206ee0006f605edU, 0xeff41fe3eb171be2U, 0x910fae909f71fffU,
  0x81701fcef13ecU, 0xee121913f6fcfd01U, 0xff00d1faec02ecffU, 0xe7e3f7f220280b06U,
  0xfd0ae6dffa140417U, 0x7fff0fa11f8001fU, 0xc0f00f0140e0900U, 0xebfafa111feef806U,
  0xe807f5fb0711fc21U, 0xfc0a13f00ffe04f6U, 0xfed7e00208e41714U, 0x2fa0f0403e6c610U,
  0xf505f80bfc0df1e9U, 0xfd04ef0a062a0fd9U, 0x1cea250dff0810e2U, 0xcf52608f2f7dbfcU,
  0x11f20df213fd010bU, 0x1a211901fbe712U, 0xf306ec01e4fb07f8U, 0x1ffdd6e014051a01U,
  0xe1edfff504140811U, 0x3410eaec0ff5defaU, 0x221326010211f2f7U, 0xfce4fce222cfec02U,
  0xe61b0ef60b05d70bU, 0x12f7f9fe21e31600U, 0xf6e4dd1e27e1e6f6U, 0xf5fcf9fef6dbfcf9U,
  0x1815e901090afd00U, 0x18c8e8f1e503ffd6U, 0x15d32b21e6fd0300U, 0xeb0c0004f3f23714U,
  0xd20f2e8f9fb0ffeU, 0xe011120b13f7f208U, 0x5dd04040321161dU, 0xfefbc90231fc1815U,
  0xe9ca0a02e910f61bU, 0x140fdcffee0cda29U, 0xa051bf9100dfadfU, 0xf9effefb29dee8e0U,
  0xd405090de4fdeb14U, 0xd1a020b00fb08faU, 0xcefd80d0a03e3eeU, 0x8d108efeaf20614U,
  0xed1c1ad1100c0504U, 0x12ecf7fdf9d7fcd4U, 0xfffa26f5d112f9f4U, 0x1d08fcfaf31822U,
  0x1707f0fe02180efeU, 0xe9f908dd01f30713U, 0x1e504f5edebf1f7U, 0x1ffbd901210b030fU,
  0xede202f9011e041eU, 0xd1ff6f624e6e10dU, 0xf902fb19fe0efdeaU, 0x11f600e918f6010cU,
  0xde2614260407e820U, 0xe4f90af014f73114U, 0xe7f8c405331711f7U, 0x3fb0ef4effe07fbU,
  0xec1301eb0b041ef6U, 0xdfecf701e113f7efU, 0x10fd2b0ee5f907eeU, 0xfa040500f4faf310U,
  0x14faff0507082c22U, 0xd140209fdf2d30aU, 0x3ea0822f61df722U, 0xf2e20024181e2405U,
  0xe5f71319f1271004U, 0xe23f8041a03ed2bU, 0x1a180fee02f91315U, 0x25d501e8f8ec1706U,
  0xdefc19fa192f0719U, 0xf716fd100a161805U, 0xdaefe61c0b2e0700U, 0x9e107e009fd081cU,
  0x170f24fafb0a13faU, 0xde00af2e2e5fc09U, 0x14ef262cf3fb1715U, 0x18ef0e21e7d4f308U,
  0xf4f9fa02fe111c04U, 0x1a06ea271de5fa1cU, 0xf8ea0904f111f8f1U, 0x1ee21213fa1dfd21U,
  0x11d909f8e515e5ffU, 0x12f3cf011cdf040aU, 0xf8f50b00fff300U, 0x28f4d7fc17eee215U,
  0xed0b100f08fdfc12U, 0x13f7201429140814U, 0xecdcf4270515f8f7U, 0xcfbf2f2f903111bU,
  0xda01f7f712021600U, 0xdde4f0f71805f5f9U, 0x11230009de0f100fU, 0xf2e901fbe8ecf012U,
  0xdf20d070f0b2009U, 0x1503f60c1508fb19U, 0x4fdfef4e2eefcf1U, 0x2080405f5fc0f2aU,
  0xed2f7f1e228001aU, 0x1cf6f3fb1cd8f301U, 0x105001515ffeb06U, 0x15ebcffa14e5fd10U,
  0xd905fe2b08f7f72dU, 0x30f4e2f410fa101dU, 0xe303f6111a1be0e5U, 0xf7d2e5deeb070d27U,
  0xccfc10ef16370903U, 0x6ebe50afcecf8ffU, 0x181e0629eaf524ffU, 0xde11429fcf8fa03U,
  0x115151a10191d1aU, 0xcf5fb040d0eea00U, 0xf3f50216f127f8fcU, 0x29f42a04ee1109f8U,
  0x19dbfd0cfd0f0307U, 0x803fd20fef80722U, 0x1e1603040507df1cU, 0x17f3dcebf1f1f00aU,
  0xdbe60dff1cfced18U, 0xf90d0f021fea1810U, 0xd7e9f1291729e2f6U, 0x8e8dce7f1ee1a2eU,
  0xebee0311fc2a010bU, 0xe1f904cfdaeafdf1U, 0x2308ff20f30d0d03U, 0xdae92525f4ee071fU,
  0x1216c408ff2a04f3U, 0xf80dc6fdf417e9f4U, 0xec1121ed021012f4U, 0x2aefd114040ad709U,
  0xe030ffcfa1af345U, 0xd301c4083802ffeeU, 0xf1f90104f6052312U, 0x131bf01732e3d8e3U,
  0xe22d1a05340cf40fU, 0xe9f308271ae4c9b6U, 0xf9fb13070cacf6fcU, 0xfc00ebe5f10ec30fU,
  0xce3bf4e40532ac01U, 0xea01fa1ed7cb0427U, 0xca2304cff0d30815U, 0x2c162106df02e329U,
  0xdf7ea19ea2a071eU, 0xa18131bcbf30af3U, 0xe524bd00f409051dU, 0x19ff2021effb00d7U,
  0x28fa1cfbfcf31814U, 0x2b0a07dc3d27f401U, 0x1730f315e813ea35U, 0xfff9dd05ffeb09f6U,
  0xe815eef42230f3f1U, 0xe61cffe4fe1208e8U, 0x300219fa39f2e70aU, 0x1eddded8f415b6e4U,
  0xe3100afacc1be6cdU, 0x703f004fce90805U, 0x1c0bef13fe34fc23U, 0xf7d82b050de22147U,
  0x3edeae803f12521U, 0x22f9fe10cada14f1U, 0xf716d4fcea010b0eU, 0xf7f50907fbf9ee09U,
  0x8f7f415ccfdedf6U, 0xfc0401e7fae6eb3cU, 0x11112315e9020bU, 0xddeefae9f6fa2a2bU,
  0x130709f60b20d6eeU, 0x1ddf25e60d12f7ecU, 0xf7edcd0410ee3ef2U, 0x8cd24e203ea01e6U,
  0x5f71007ecf9e012U, 0x30fe92017fee40fU, 0xdde4e72b10350113U, 0x20df211fe6f2ebf9U,
  0xfa0802deec060901U, 0xf6e5190ae21b0114U, 0xfb10e501f6f413e9U, 0x9f7dff0faf61d00U,
  0xf2eaeae5fe0bdbf4U, 0xfff3f4f4e2050fU, 0xc7d2e6e3fc1dc7fcU, 0x2faf90205fff132U,
  0xedf617e801e40f00U, 0x9db170d26ae2d07U, 0xcb26f90400e60708U, 0xda33e5f8eae0fcfaU,
  0xe700e4ea28fe0939U, 0xbcf7e924fcebe205U, 0x3f1fbf2fd2c1efbU, 0x5dcf6ef13f91700U,
  0xed41d9d6fe1613feU, 0xf874d7e8ec16061fU, 0xe2f016e30cd0f1feU, 0xf00fe2290706ede6U,
  0xf9e116f21afd0f04U, 0xde0d05fbe014f00cU, 0xd3fcfef4e3010909U, 0xe20500db180f0c0eU,
  0xf5ee06ee331a15faU, 0xde30e60319c20b0bU, 0x1f9f2f9efebdbf5U, 0x23d4e2b707ea1d02U,
  0xf22c020d38fa22f2U, 0xd5ed0810cbd526fbU, 0xce702d2f70b1d04U, 0x13ea26dde5240318U,
  0x12da0304053c172bU, 0x92f33e2f7f9fb02U, 0x316d5370d02feffU, 0xfc2c1a080ceeefebU,
  0x2ad6e51103f304d4U, 0xbf500ed210228dcU, 0xf33619f3f5f6f0f1U, 0x1931e4f70de80002U,
  0xe62bf3f9190be025U, 0x221b15e818ff0df7U, 0x33e4020ffc002321U, 0xf8e2f4faffdc03U,
  0xe807f40e090311ffU, 0x1501cf26b8140429U, 0x1009f048fb131b10U, 0x1c1c0232d90c120fU,
  0x1ed531f9f0e802e3U, 0xec2f919ec1af920U, 0x3102b0f1c80530f8U, 0xffdcca070e2a1423U,
  0x52f0c100bf0fa27U, 0xf5e7fe17eef40904U, 0x7fb0d1607ff1af8U, 0xf2d4181c280909dfU,
  0xff0c241a0000eee6U, 0xfa01cbffe10a12ffU, 0xf8dbd9f8ef2ac601U, 0xf242013bffe52024U,
  0xfbf5f2d518021afdU, 0xf32202254e01f72dU, 0xe7ebf814f40a0d0cU, 0x131009e7ede6fef9U,
  0xe424032be1d31eefU, 0xeefeca0505070131U, 0xe7e5db14f2edd216U, 0xedff0e26171b22fbU,
  0xf50feb0ef0021a17U, 0x29020804ffe208f0U, 0xf80801f9f4fa2508U, 0xd536ff01fa02eb0dU,
  0xe5e4f8f2150bcc01U, 0xf20507c8fb0ed3fcU, 0xf80d0bfd1739caceU, 0x2fddeccb170d0b0aU,
  0xe3c4ea27d71402deU, 0xff04dbfc06cfe2bbU, 0xf54a05070401ed11U, 0x1ae320dc01f1ffe3U,
  0x2d3e5e020efea22U, 0xfaf201f81aef0cdbU, 0xe7cec70bab02de01U, 0xf526090722f4f916U,
  0x5faadb0f1ff9decfU, 0xcf8f80007b8daf4U, 0x10e609fdfdf5fce8U, 0x1bffbc2a2ff7ca27U,
  0xe0eb182fc50fd5feU, 0x120434c9122b1cddU, 0x32e43efcf02f13e5U, 0xf1c5e4240b2a1a23U,
  0xc8cc49e1edf7dfc1U, 0xeff2e1fd2cbcedd2U, 0xb5011edf6ff04ceU, 0xf7e020e416e0f3e4U,
  0xe22fb21b022f3846U, 0x1ac4a6e92a0b739dU, 0xfaf8cc0fc6f9efaeU, 0x3267f3814e7dff3U,
  0xc6f6aa15cbf0c40dU, 0x12fe041015c828feU, 0x2adfedffe5ed19ffU, 0xeb10e40e00edf538U,
  0xedff142513feeb0cU, 0x2f65df5f8ebf903U, 0xe1eee40cf661c6dcU, 0xfd1eca22350ef937U,
  0xc1b33cf3c11ece15U, 0xc4ebe9e01cc2f9d5U, 0x1e70ebab0b01ff2dU, 0x211d10fe04fff332U,
  0xf405fa0c04dfac1fU, 0xfffedae91ef90b0bU, 0xaffd22f3181fe806U, 0xb6060f8107fa0434U,
  0x16c92c00200e07ddU, 0x401f8f7f916f6d6U, 0xcb140c07e715f801U, 0xe60dbc11e5efe4ddU,
  0x617ccecfefefdf4U, 0xcd02e8fdfdfefd10U, 0xf6fa27ec089c0a10U, 0x1eb6dfa9fe11f21cU,
  0xfe27080c0af5b8eaU, 0xfffdf80ce60112edU, 0xfd0f1d1ec6060421U, 0xd5ef27ff03f9ff12U,
  0xfced11f0f6fe0cd2U, 0x9c8021001dbebeaU, 0x1aedc5ee0e1d19f5U, 0xfceadb0f0cf1ff23U,
  0xd714df020b15c417U, 0xe301fd14231501e3U, 0xd206f4da1d02b3efU, 0x7f915080904eb04U,
  0xf70c1c01f4cefa08U, 0xf8ed13ecfa0c1216U, 0x24fce408090601f6U, 0xec1b0f27e23cd700U,
  0xfd080cf7cb041ce9U, 0x1c1309f32002da05U, 0xa0b07fff30d1006U, 0xbe01260ae3f3eff8U,
  0xf7e5fdfcfc0702d4U, 0x1dd5f7f3fdf8ede6U, 0xff9d1f0f00400e0U, 0x606d90707ff2703U,
  0xf820e225c6fbd4feU, 0x1513011c0af9fedeU, 0xcaf6f8d509f8aa0bU, 0x11eb1cea13101320U,
  0xd0600e90ed30c30U, 0xe0e02ffbf7fffc04U, 0xfdfff819fcfe21f0U, 0xea231520f21407f0U,
  0xfec16f5ed0808f7U, 0x3ed02f8200aea0aU, 0x1301000b06111301U, 0xc10508e3e116e7e9U,
  0xed18f9f005fc1aecU, 0xfdf70b04e3fa05f5U, 0x1efad7ecf81404daU, 0xfb07ed1d1107fb0bU,
  0xfa24d50e0306eef4U, 0x1110e0f800f7f2fbU, 0xe2fc0bf11e11e503U, 0xf4dd170713ea10fbU,
  0x51206071106f816U, 0xe50824e82df30500U, 0xe910f212020328f7U, 0xe9151a16f010f10aU,
  0x20408fa030a02ecU, 0xcd717fa0601f319U, 0x7f60bfe08f70303U, 0xfff211dff313dd0dU,
  0xecf113f2f5140a0dU, 0xee06020f222508ffU, 0x1105e4080d0508e0U, 0x72103df06081105U,
  0xf5fdf009e0040119U, 0x6fff205fc03eaf2U, 0xc05eb0ff313ddf6U, 0xef01aff1ffbfffaU,
  0x61106e7fef0fde8U, 0xecfce8dff1050503U, 0xcf305f9100d0e0bU, 0x50d111de203e901U,
  0x30f0f02f81410f3U, 0x121001fe09250df7U, 0x3ea17021308f80dU, 0xe70215d8eff2edf6U,
  0xcff08e502faf40dU, 0xe7170bfb0c07eb0dU, 0xfa06dafe00fcf5feU, 0xfa17ee0b231f0017U,
  0xd8eaf01bff0a091bU, 0xf311e7f611f4f500U, 0x41417f2f80ae510U, 0x1311fa0416fff600U,
  0xd07e705fbc4fc07U, 0xf51106e61ff121fcU, 0xf8f8e0fd210bdf04U, 0x1322d904e5042518U,
  0x10011105f20a04f8U, 0x8d5f003e702ede5U, 0xf8f303f9f4060d0eU, 0xff0411d2f802fc13U,
  0xffdaf4fa0dfef1f7U, 0xff141efa1814feebU, 0xf513fafbeb0df4f7U, 0xfb0be1040dfcfcffU,
  0x14dd0b0bee20030eU, 0xf91c05e60c1bded4U, 0x3220501ec1bf20bU, 0x90bfd15eafbecf9U,
  0x431f10af5cbff16U, 0xf4ff0905f4f8f914U, 0x28f9f2eb050afde3U, 0xaf71205e70016f4U,
  0xf206f802e809ff03U, 0x1806f017e82df9dfU, 0x18080c15e0fefe06U, 0xf0e211e4ebf3ff00U,
  0xac8f604f9fa0ae8U, 0x7f326130cf103c5U, 0x2a01f4ecf80f3407U, 0x4170ef6f81ffeffU,
  0xfafeeb1b07f5d813U, 0xfeaf7fd00f814faU, 0x18130c0b0a040b0eU, 0xef20f2faf4d20916U,
  0x1c17251be701fffaU, 0xdce416f10bfcff36U, 0xecfebefe0c1cf7f0U, 0x1023061cf501fe0aU,
  0xcf600f9e302e901U, 0xf9e5e400fbfbcdfcU, 0x110fe80ff5020c10U, 0xde0fef6e5fbfc05U,
  0xefdbfdf813e704e9U, 0xe6fb2b13f10e1ae6U, 0x19fb0101fcfe1d14U, 0xff1a150712f600U,
  0x10140b0b00f5df11U, 0xe05f20614f30dcfU, 0x1c04fef6f820f4fdU, 0x1f25fdb608ef0936U,
  0x4f20a08000b2bf7U, 0xdd21b070d041114U, 0xafcb3200c1a07dfU, 0x11011ffefee01eeU,
  0xf4e51efff9fecc02U, 0x11eee0121b19aae4U, 0xee0af90901280108U, 0xed010904ec0d0020U,
  0x4ee1e06ffeae70eU, 0xfefa21fe110c23f6U, 0xd01f618e7f5ef0fU, 0xff09240b0d11fc07U,
  0xbd8eae109f2f813U, 0x809fa03fbd52400U, 0x11fc170fd8f603f5U, 0x1000eef60df41f25U,
  0xaf4010eeb06032bU, 0xae200e601f40b0bU, 0xdc00cefd0c3f04f0U, 0xf0fae703ffeb091aU,
  0xeddf26edef11cdfbU, 0xeff7d21fe8fde80fU, 0x200f610040efc03U, 0xf3fd0c0804f308faU,
  0x16e1d6133504e5ccU, 0xf2d20ae0c9f4fe03U, 0xca0fffa6e125fae0U, 0xd7a4d2d70a251105U,
  0xad7f700f804af32U, 0xd213d7da1dec04caU, 0xf902fc24f6fb09f8U, 0xfaf3f8fb38f7f7eaU,
  0xe4f7ff00e9da213aU, 0x3dafa0144811d0bU, 0xd3e7fb3331c006d5U, 0xb80508b50101e8e4U,
  0xfce60c9de71abdf9U, 0xcf0ad0b0fef5f104U, 0x18e6f3eddf280d11U, 0xccff28ee0de80029U,
  0x2250205fb2cf9f7U, 0xd040f4a2ead81730U, 0xe1dbe4fe1b0ac8f7U, 0xd2fafbcff32641cfU,
  0xe727f92cdcfb0018U, 0xcf28e6ec01f1f4f5U, 0x1232fe6c61edf0aU, 0xfdf13dd29eddb11U,
  0x320cddf33cd11840U, 0xfc2706f502f43d1bU, 0xe3ec0d061cf8d4f4U, 0xd11c0b8faf510ffU,
  0x80f24ffed008c06U, 0xaef8c5deb81f1be7U, 0x181cec620721209eU, 0xe60e1810ffdc0921U,
  0x1f04e31dfdced33cU, 0xdd49ffc9f22d2ce4U, 0x89c90711f21dc801U, 0xceec05a411132effU,
  0xd1850803f6200a1dU, 0xe037d2fc3c32c5dcU, 0x2181df50135c8f5U, 0x1802893ffeccb3f0U,
  0x1b11e8f7c5ad3342U, 0x3637bee21be60316U, 0x19f41c1f34b706e8U, 0x2b92d2bf070ee3fcU,
  0xf624f710023dca27U, 0x13fe032cc7d533d1U, 0x2005f5fa96193ac9U, 0xe3ea2f1dfff1f708U,
  0x19f9d61204f4fc11U, 0xe82e1f19daf30f02U, 0xe8e708e5062d0ff9U, 0xd3e011050b140feaU,
  0xdd00e1e825e629U, 0xf7ffcfda14250100U, 0x80e41f8e41ceb01U, 0x9dceff239c1f4d0U,
  0x40e9e100e1dcf33dU, 0x16fdeedf2806ff0bU, 0x3aeeb61d101412f2U, 0x1081dfd12f4fbc5U,
  0x417fdefe016f228U, 0x32fae52806e8e2d6U, 0xad0043ff02d04ebU, 0x25d70c32ebb30c24U,
  0x8f6ea1902dde9e9U, 0x1b0513e711c70203U, 0xdce8e5d6dff6dc02U, 0xfc0bc4fd1b142fdaU,
  0xcf826ffeb24c7edU, 0xdcf8f6072be402dcU, 0x29070c31e73d0ff8U, 0x1aed08e749eb0ddbU,
  0x241b2ded0af4012eU, 0xfdc0bf505ce123eU, 0xfeeddd1d23e71d23U, 0xf00513f522dbe4fcU,
  0x30fe9ea0e230a23U, 0xe5e021fcf4100315U, 0x23e2fc18fa2409f0U, 0x28c9222a2be50b20U,
  0xd03ee1415dd0dd9U, 0x35f1071e08dd160aU, 0x21113fbeb250fdfU, 0xcf03ddd31c622deaU,
  0xfdf1ebe8db0cf529U, 0xf1ed8151dee1b02U, 0xd61b04f9103e04ffU, 0xce9ffec2709dcd5U,
  0x491eeef4050d1d1eU, 0x25090b0232ee0618U, 0x38d9f6100d18efd0U, 0xd81209e61ee3fa14U,
  0xb305e4e31c2327eeU, 0xf6f6e03402ebd4ebU, 0x10330605e61a4d01U, 0x1edfc153af9f13aU,
  0xa05ed094109e209U, 0x5b9cd3116e4f322U, 0xe5232ac3e219f905U, 0xe713f5ec251d310cU,
  0xb09fffce40def11U, 0x22eaf291c10d600U, 0x1f16412d114a024fU, 0xd8d9183f29f520d8U,
  0x234fdce814000025U, 0x13dee9050a290945U, 0xf1e1fb182409f4faU, 0xf9d916282cf10024U,
  0xf710f9d119fd33efU, 0x40f050a3ede0118U, 0xe042301ed270d0eU, 0xe2d420f720f2df30U,
  0xfc1bb0060be733ecU, 0x10d2dc280c120fecU, 0xc5feeaf2de3ffcf1U, 0x14e6fd1c10222a01U,
  0xd31abcfa082bcb35U, 0xb55eb2531e91affU, 0xeb02232a083ae8ffU, 0xfbd1dbff42ecf758U,
  0x2319e6f8f4fb2f30U, 0xdec22e36fedb1e0cU, 0xd5b30b223214f0e3U, 0xd00914f325fff402U,
  0xafebfbc5f93314caU, 0xf7f61c153cd7e811U, 0x72d220f0b382703U, 0xe3e600010de9f825U,
  0x210cd8173c0de6fcU, 0x3208ece50d0df8c7U, 0xd7312207e4375815U, 0xf420f22531083404U,
  0x31fc0ef90216e507U, 0x173af0002edf09e4U, 0x11131e36ff0d1724U, 0xf6daf9f526de041aU,
  0xd2dfd173a2fef27U, 0xf91f20251c09221dU, 0x23c8f1ef440c24e4U, 0xbeb1af51b0becfaU,
  0xfc180dd3223d14ffU, 0xcafff9030e9407f6U, 0xc1a130f051a1c18U, 0x19f4270e1acfe639U,
  0x4620f208f90ee610U, 0x3e1df70b2ed612feU, 0xf11eff322dfcf9feU, 0xf22a43eb1f341efaU,
  0xea090301df1d082eU, 0x4814e7f3210d092bU, 0x42d1f241325f92bU, 0x21e128ddfad74c20U,
  0x3737e4fa2fddde05U, 0x112acd2a2afa2c1aU, 0xbe1023240e3240fU, 0x2726d804270b0e06U,
  0x1807f113e61316feU, 0xe4d1e1e509022e11U, 0x6f7211031560d22U, 0x11d628d709ef071fU,
  0x6f625ce0af0ecccU, 0xd0b04fef8ece5e1U, 0xb7fec70e04fa0acbU, 0xf61eff81eb180301U,
  0xebcbeb17e011bff5U, 0xfa0ae7fec0eea81eU, 0xdb0909030c19d8e5U, 0xffecc8b31ce4fabeU,
  0xa03cf02eaa4e5feU, 0xf301c2bb2322fff9U, 0xafccb3303a4db01U, 0x97fd0d0ceb0bdee7U,
  0xd1e3f9c708140816U, 0x80914061ec3a8d7U, 0x1d03e901ee1b06c1U, 0xc4eb2912d9d6f30bU,
  0x7de003900f7f9f7U, 0xeb120efd08f80d05U, 0xfdd91ffaf51012e5U, 0x7f5dcf9111a0914U,
  0xe0e7d02cfc19f518U, 0x50aeaf6140fecf8U, 0xfaf70d00181234fbU, 0x29f8d60ff0f2e5e5U,
  0x1b00110dee0afef9U, 0xf8e9ec101aeb1501U, 0xbe7f7eb0f14f50aU, 0xe10f07130c2f0f19U,
  0xec0c1bf1f026e119U, 0xfeefef03e9ebeee1U, 0x18f2051dd61f25c0U, 0x29f50b17f0e2ee0eU,
  0xf4042f1df50701U, 0xf8020a18dffcedefU, 0xe8f80af5f31a0d0aU, 0xefe0ebf72e28210eU,
  0xf8d7e2020712e020U, 0xfff6e9d514fbfbe7U, 0x14ff052a221f3cfcU, 0x1626f20912e8f705U,
  0x112a13e9ed0c05faU, 0x2ad30c0c1cf21128U, 0xf7e1c30e0df1d70bU, 0xb504f4f411fbf40bU,
  0xdafcf5d9f00af5ebU, 0xee9ee0225f9eff8U, 0x15012825c00b08e3U, 0x38f20804fbe0f832U,
  0x150bf1211bd304f4U, 0xf8fee227b1100505U, 0xf90402e50a16fff3U, 0xf406f2f8281a2614U,
  0x19f9061dfa2ae319U, 0xf3fbe1e41b01fbecU, 0x1b151c1217162916U, 0x1c08f2f918f20708U,
  0x1811120c090c0f29U, 0xfcd130f15dd2705U, 0x4ddec0e21030bfdU, 0xc5e5f9cf0bf1db20U,
  0xda0bf5ed061ad70fU, 0xf3eb04e8f20fe90dU, 0x608250cef3512e7U, 0x1af11122feedfd34U,
  0x2f0b06231012eefeU, 0x514e713d8041918U, 0xfc20efd0fb2d0517U, 0xcef502030df41623U,
  0x10ff0b17f51eff2bU, 0x50df802121cfb03U, 0x12f9e803141f2422U, 0x12d6ef2a130bfcedU,
  0xe0c21101dfef30dU, 0x15daec043ad22316U, 0xd1ddf91513ec03f6U, 0xfed507fc0a030122U,
  0xf41f09e40912ff00U, 0xd0d140af30c14f6U, 0x120c0422f5010ee8U, 0x15eaf409ffe7022fU,
  0x110ef83016f3f9eaU, 0xfc16e414e10100feU, 0x1f3edfff4060600U, 0xe1ea12f315f21508U,
  0x9ecec10e91bf419U, 0xe0bfdf026ecfa13U, 0xeefc0f1f1b240af3U, 0xffeaddf720e9e7fcU,
  0x13151401fc09df0fU, 0x1dd80ddf0a141525U, 0x2ee2b0cfff2e501U, 0xe1f7df0e1424eb15U,
  0xfbf4f6f6f0f6fcffU, 0xf6f6e2fe0504fdfeU, 0x1b04ee0bdd0616f6U, 0x11e60af6eac6081dU,
  0x210f0b1efaf613f5U, 0x12f7d91facff140aU, 0x408faeff31e0f04U, 0xd3f5fff602130219U,
  0xfbf6081af0120bf3U, 0xfef8e8dd2ce807e6U, 0x3172110030a1a0aU, 0xeb06f8231ceb0bffU,
  0x1018fd21f703f411U, 0xf102eef2eb0926U, 0xcfc60c1c18f0f418U, 0xfa12f60602e814U,
  0xff07edfcfa21e9f9U, 0x1e804e7f60b010eU, 0x5f9ef23f2072910U, 0x13fb0d15fcd0ea1aU,
  0x2b1d0117ff050402U, 0x120ae707b2120304U, 0x50bfa00081d13faU, 0xcdf819fcfb09181cU,
  0x1009f20af411080eU, 0x1b0df1f9180b17eeU, 0xf7ee172f152210fdU, 0x27ecf7f333dcfefbU,
  0x5fe261c19241623U, 0x2d01eb052eee19fbU, 0xf1f7171532f7f7edU, 0x5e9fde70721f01bU,
  0xfc180bec000df808U, 0x14fd10ebeae91301U, 0x2206e91cfc0a19ecU, 0xbe61e22f1e5db21U,
  0x1df00224f3030823U, 0x10070a16a6f2fa0aU, 0x191602f50a010a0eU, 0xe8f60b02fa0c14fdU,
  0x52f211ef70a1a14U, 0xdf4dbb70413f5ebU, 0xea0403000422f215U, 0x3102072624e60edcU,
  0x5270b22fb250101U, 0x1dddddf9fc18231eU, 0x131303081fec011dU, 0x7f212f7041fe3efU,
  0x16f0ed00172019eeU, 0x14e804ed201d1804U, 0xfeee213131c0405U, 0x1c040c3dfaf6f813U,
  0x31140d2e0fe61625U, 0x2304f208a213e81fU, 0xe04e8d7230d1711U, 0xf1dce62e02321818U,
  0xe7131b25e62b1713U, 0x2213e9c61500e62eU, 0x162b0a271a1122f7U, 0x3d0c2bfe1fd846c8U,
  0xe0a163dfc13f928U, 0x20dec90e26091214U, 0xeb030a0ef5052a2dU, 0xe4eb150a0408f4f8U,
  0x24fdece705241505U, 0x451d1ce227152e14U, 0x22e8ec1ee5290d02U, 0x3d061b31ee0be612U,
  0x6fefaf9fc0bfd02U, 0xf406f9f5fbe8f9feU, 0x30bfafdf60bf908U, 0xfe02f9fdf802f409U,
  0xfcfef8fff903fdffU, 0xfcfbf9fafbf602efU, 0x90f0002ff030e07U, 0x1edf9fe0aebfcffU,
  0xfefff9fc06f6f90eU, 0xf8fdf909060419f5U, 0xfdf8f8090b02fefaU, 0x402f8f97ff8ec05U,
  0xfdff07090808faf8U, 0x6fcf905fa09fef4U, 0x4f60116041210f6U, 0xfa0b0cf601fd0603U,
  0x5fefa0003fcfcf8U, 0x6fd05f807faf701U, 0x301f90302021100U, 0xfc0306fc040303U,
  0xbf90701f308f612U, 0x407f603090dfc05U, 0x5fd12fcff0efc02U, 0x2f1f4f6fcfbf700U,
  0xfc0807fef7fe0206U, 0x9ed03eb000706f7U, 0x7ebf2fe00f808feU, 0xf8fd060911f707U,
  0xfc0505feed08fc04U, 0x9f8001018f5fb00U, 0x9010603ff1008ffU, 0x2fb0100f9ff010fU,
  0x1f8f8030105f8f7U, 0xfdf9fe02f1fef80bU, 0xf904fbf50af905U, 0x2040305010c08eeU,
  0x10105fef10df6f8U, 0xfdfae5f80efefbefU, 0xf9f70eee070cf5feU, 0xfdf7fbf8f1f30803U,
  0xf60d02fbfb01040dU, 0xbf1f8ff06fc06feU, 0xebfae80a06050508U, 0xfdfa0bf0f3000efcU,
  0xfcfb0b02e9fd05f5U, 0xfbf5f8fa0bf4fefeU, 0x7f304000907fff4U, 0x2f4080102f6ff11U,
  0x6060a09fef803f5U, 0xf900fd02fd0a0a00U, 0x5fbfff70a0805f7U, 0x7f7f708fefc06fbU,
  0x80607f60609ff00U, 0xfc0806f60202fff7U, 0xf9fd04fb0c0af201U, 0xf70408f904fa07f8U,
  0xf50ffaee00fef5f8U, 0x40f0af60300fcf9U, 0xfdfc040305f111fdU, 0xf6fe1102f60107fcU,
  0x9040801f5070310U, 0x1ec05fa05f30606U, 0xfefbfdfbfe0708fdU, 0x4fd060302000105U,
  0x100d0c0600fbfe0bU, 0xfd0c0006f1f50d01U, 0xa08fb13f00dfeffU, 0x2fb03fcf802fb0aU,
  0xe805fd04010a0400U, 0x8fafe03faeb040aU, 0x1111a080110f600U, 0xa0101161cf3fc09U,
  0xf709fe130b07f904U, 0xfc01faf807ff0800U, 0xf6ea0d060c0b0eeeU, 0x508ff09fc05ffffU,
  0x80bfb020508fff6U, 0x1f406fa06ff18fcU, 0xf60ffffbfe0502ffU, 0xbfa0105faed0a08U,
  0xc0efb0e010700f8U, 0xfb0f0705f0fc000cU, 0xf6fa00fe090b09f5U, 0x1f3fb06010605ffU,
  0xfcf8f8fcf10700fcU, 0xfb00f704090701ffU, 0xa050dfb0cf803f9U, 0x6f7fc0309f7e304U,
  0xf8010208ff06fef9U, 0x106ffff09fe1007U, 0x100206ff0e09effaU, 0xfd04f704040b0307U,
  0xf80df5010b100100U, 0xf4fb010aedfffef2U, 0xf908ff0afe0608feU, 0xff03f20c07fff90fU,
  0x90afa16fdfc0bfbU, 0xef06f50909f80cf9U, 0xde05f509f9fff8efU, 0xeb01040502ff0403U,
  0x16e2fff1f30d070cU, 0x60af8f708fbfdfbU, 0x6f51200f0060b03U, 0xf8ece8120afdf2fcU,
  0x707f700080005U, 0x1107fcfc04fe0807U, 0x9f60c030bfaf8fdU, 0xffead8edfe080313U,
  0xf10cfafa0502fc0aU, 0x7fd0615f3ea14fbU, 0xa130000fc0c1308U, 0x7fd17060e000506U,
  0x509f805fefefd06U, 0xfdfeec0208ff27fdU, 0x1f9f700fc0d02e9U, 0xfbef1614fe060a05U,
  0x205fbf4f20d00f7U, 0xa03f70709011908U, 0xb080c11fe0aebfeU, 0x6fbf4070bf6e817U,
  0xfd10eff1fb0df915U, 0xf6040eff0b05fc17U, 0x4eb0705fef6e904U, 0xfafcf30503080407U,
  0xfafb09f704fd0101U, 0xf9f90011fbfbf5f4U, 0x221fb0d070a03fbU, 0xfaff08f1f7e60503U,
  0x508fe07060607fdU, 0x7f30ffbf7f42aefU, 0xb05fd040102ff01U, 0xfbf61909f51405ffU,
  0x6eaf5f8ebff090cU, 0xff00e516fffb1302U, 0xf6030b00fa0503feU, 0x902f0f9f2fbf815U,
  0xfc06e704010cf7fdU, 0xee0d0903f50f070fU, 0x15fbfffd0e12f705U, 0x1f9f707fa0bfa05U,
  0xfa0006f90fff02f5U, 0x1f0fc0307fbf2f9U, 0x323fd060cfe11fbU, 0x13030101f3f80a07U,
  0x70804fa050904faU, 0x5f10106e3f424e9U, 0xfefafd09ff13f7feU, 0xfe001cf2f3ff04fdU,
  0xfcfb03010406fc06U, 0x109f107140a15fcU, 0x41112050904f009U, 0xff040a0007ec0a09U,
  0x5fef0fdff050cU, 0xf00605020cf30700U, 0x601f8050bf5fd06U, 0xff07fcfe00fd05ffU,
  0xafd03f70a0bfd03U, 0xff0208fd0efffef8U, 0xff0b0802fe090a00U, 0x9e802eff0f7030fU,
  0x48f826f526fc0cf8U, 0x15f41d40233d0217U, 0x18fe1502171315f3U, 0x1160720e001f80eU,
  0x27f80e04cc24140aU, 0xf00abd2718f9dee5U, 0xfae72507122921edU, 0x1efdd7cf28ed1020U,
  0xb250b19ea00f22dU, 0xcb1ee2fd3016effbU, 0x1ac7d90c3117e31cU, 0x150517254317a821U,
  0xffbd0510181f00b8U, 0x29defcd0001cdbefU, 0x3029e8a53018480eU, 0x15ce4228f0d8fb47U,
  0x101e0bad1b07d406U, 0x3f16dfeed6031a00U, 0xf9dbf81ae737f9ffU, 0xd4f7ef02e42e37e8U,
  0xf0d508dcde260d1cU, 0xf622dc0c23f7ef00U, 0xf7d2541fe6470addU, 0x16cce51e2adb0007U,
  0xe9321ef2e9081820U, 0x800edba30f22f2bU, 0xe0c910273bd60623U, 0xfbe10ef509d7f0d8U,
  0x3de51909f01ce1e1U, 0x24e504daf1f71df9U, 0x2d000617cf455420U, 0xdfb41dbe4ee062cU,
  0x56560d8d031fec16U, 0xff2ef4f9031c2ae3U, 0xfaf811193463dfeaU, 0xd5c83208f13f3c21U,
  0xf4e1d906ee10fb1eU, 0xf82cdd260ffbf3faU, 0xdcd90a111c20d7d3U, 0xd60cf41948dcfef0U,
  0x31df7eefcea1319U, 0x11fd170843cbfc50U, 0xc0c426432fe209faU, 0xd0ebfdf6f5fc08ffU,
  0x1811fafe153bfe0fU, 0x1eb1af3c5c82809U, 0x25221015f71e422bU, 0xb0182b1bffc3f01cU,
  0x2ffc28c11a1008e5U, 0xe83f00f40d1a030eU, 0x14fafc0df31eedd4U, 0xe7cc2e0d063e1e1fU,
  0x31cf0fbb91e2932U, 0x1e1dc8ee1eee1d12U, 0xa311f1101a2d06ddU, 0xd201fb1240e31118U,
  0xef3a0aa728fb0b3dU, 0x292eee0c06f8051dU, 0xe3d9162329e8f4efU, 0x20ed20c1c08f212U,
  0x1027060b160910e7U, 0xffcdffd1d6f33600U, 0x390f0e1f17363307U, 0xfdf4f2e404e21702U,
  0x24f23cfd27071f06U, 0x142640d3f20af702U, 0x14fc1d40014d01efU, 0xf8a913d217143ef5U,
  0xd801d406c638200fU, 0x61fb62a36cddc33U, 0xea110f12d93ccd07U, 0xc6e2f3f23ee7c13aU,
  0xfb26f7bcd3ebff0cU, 0xfe35d3223823fe36U, 0x13b82c2b0dda150eU, 0x201799380a14f4e5U,
  0x21d3ff1a174105f3U, 0xd9bfc4d5bf1f0bb9U, 0x20f817320b1c3600U, 0xd6f035fbf9eff819U,
  0xddf290808cb27aaU, 0x44f632f5f3dc010eU, 0xbe51545e42ab0dbU, 0xf4da0bdf050d41f0U,
  0xbff5db03ec42130fU, 0x3c37eafa1ae0f326U, 0xd7f4262fe10f17d7U, 0x8f0dde4fee3dd0dU,
  0xf02b0a10b91b112fU, 0xff1dfa1e311f3349U, 0x33c8fe2b3a0feefbU, 0x229ec1425f03014U,
  0x6e11e0ff2070cf2U, 0x19bf090c1f3914c8U, 0x3a062343c21b0f18U, 0x14e22d1fe7c61439U,
  0x162403b92f001012U, 0xcdf2be7cf0b1fcbU, 0x10240e230203eab3U, 0x21d6e2d5f825090aU,
  0xe9f4c207a717f520U, 0xe808fcf53d080946U, 0xaf233df70516fb0bU, 0xc3f5cd0f30bbdf13U,
  0xfbff06c9fb07f628U, 0x306401a27f60d36U, 0x20c303294127fae1U, 0xea2fdef5332b26feU,
  0xf7d5ec0a111ede4dU, 0xed52c012311e9d1U, 0x52c1f15d72a282dU, 0xd0a062305d7030dU,
  0x25cd2cbc2b020bfeU, 0xe123f2bdedf51ec5U, 0x31d738f1fb1ef8c3U, 0x1decfc0d1aff1d00U,
  0xf202b1ebcc2af21cU, 0x1b19cb14ffda001aU, 0xb54c2cdf1634c1f7U, 0xa4e2f6d711c9e13bU,
  0x1a232d93dbbb1a11U, 0xf9112227f8020343U, 0x2dd9fd20362217e7U, 0xd40515093015ccf6U,
  0x3bfc1418fb3621dcU, 0x3bd4f8dcf002bdb1U, 0x2011fe33e5211d22U, 0x81d90df4ddd41b35U,
  0x18fe3ba9001afefeU, 0x9f311efd41f09c6U, 0x36c8de0d003223c9U, 0xcdd72c3f031a1218U,
  0xe306cb07d949f3fcU, 0xf2ffb1742002116U, 0xe01219b518fcf2d6U, 0xb6e308f244ead11eU,
  0x2f12da99f1060222U, 0xf51af6d8362e271dU, 0x45c8fa504320d6e5U, 0xe2bf2301921e609U,
  0xfdfa1e01340d22f4U, 0xafbe3e10546ebceU, 0x5015042f2d1a3820U, 0xdbee100dd6d61724U,
  0x28e1019c22c801a1U, 0xf4ca2cf7f403132dU, 0x29dee81fe4100a04U, 0xd2da3f0a133a1dd9U,
  0x824d90af1151317U, 0x1533f1d238e8201aU, 0xc4192ceb1741c3c9U, 0xc9c8f32628cd0431U,
  0x1c23f4bcd5102210U, 0x190b0ff40c251337U, 0x16e0fb2c2027dfd7U, 0x1240df3a26fbeeeeU,
  0xfad6f51bd92c10f3U, 0x1b0303f01e3e09efU, 0x2219211a173e1c25U, 0xf20a0202e5f8d03aU,
  0xfd0dd10a4709e627U, 0xfafcd7eec9d9e20aU, 0xd92316d0f7e9f7fbU, 0xe82a8c34321c3416U,
  0x2e31f33f827d2feU, 0xf813f4a52703f212U, 0x410802f1fb07d60aU, 0x1facb20f6f220caU,
  0xe02b010d14ddfd18U, 0x7f8dae2f9000208U, 0x207f2fce7ecf5f9U, 0xd2f20ac1510d1929U,
  0xd4f62abdf3e2cad6U, 0xb0ce03806ff0500U, 0x9b1363eeef314a5U, 0xb140c0920d1fa01U,
  0xf6bcd20305d2cfe6U, 0x7b6010501cfb415U, 0xc10e05aac61e22d8U, 0xd31bbc185c3203c1U,
  0x53ee2df9ff25ade1U, 0x70af1c4fddda9e8U, 0x3ae4d1d1ebe9f923U, 0xec10ed39fff631dbU,
  0xb9050e1c31e11a1eU, 0x1091200914ced803U, 0x1e03b6f82e1346feU, 0xa4c7feec17d126f0U,
  0x9dd11db6fa1af1e0U, 0xf4ffef1d25dad9e3U, 0x1ef532eadaf3d5e3U, 0x24fb0d0a25fb4111U,
  0xc1dc0e6270dbbb2U, 0xf7cfc753f9dadfc9U, 0xcf0f07c6df1d2bf1U, 0xaeebbc25aff0626U,
  0xfde9e514e10baffdU, 0x200110d7f8eba83fU, 0x422c132702f90d4cU, 0xf907daf703070beaU,
  0xdeec07090f0c1de5U, 0x2c836f0e5c90f2aU, 0xe315d314e54ae0f2U, 0x9b02e5171a061d16U,
  0xbbfb3ac808fdf3cbU, 0x2e70e0f10ccbaeaU, 0x2e0e2f18df231bdbU, 0x1a101feb20ff332aU,
  0x314aa080b03bdf1U, 0xe906f8340aa2ff06U, 0xd00cfad6030135efU, 0xd71ba50e62f400fdU,
  0xaf9fefde1fe98e7U, 0x2814ff99fa14b302U, 0xe71030141e281940U, 0x2c09f9f70a072011U,
  0x4dadb163903e2f2U, 0x3ba30e12bca2113U, 0x29ddfc1d303d40ecU, 0xa7c727f80c3fd921U,
  0xb1242ad1ebef0cdfU, 0xe4eb2540facdf1e7U, 0xcca280ccdfa2da0U, 0xebb81dddfdf3f0f3U,
  0xf711f10a1a28dcfbU, 0x26271c322e02f5c5U, 0xe71ccafc0e170a00U, 0xb6ffb9b913eb2349U,
  0xd7efdffefd0bc82eU, 0x5fb08bb291db9f1U, 0xf60a29f24cfe0434U, 0xdd303160ae3060bU,
  0x23d4082f2cd5e8U, 0xf0031ef208c51ee5U, 0xbde70419ee035816U, 0xf80e120e030c0a2dU,
  0xf916e108f91ddfcfU, 0xff12f023e4cafd04U, 0xe30a0b18e10109ccU, 0x120f2b1efecef1f6U,
  0xa33dff4f620de14U, 0xf2270af13c04fe2aU, 0xc0bdaf719010bebU, 0xe51e09d202440ffdU,
  0xc004f7efe12e0223U, 0x106e6fc00e4f0U, 0x12f01c182803ecefU, 0xeef306df0a16ec2bU,
  0x154ff81b3ce6dd23U, 0xf14f6f6fcf312f2U, 0xf4edcdee17342ce8U, 0x52de6e40afaf109U,
  0x1c1ee72129efdb0fU, 0x9e728d117fcf1U, 0xea2af015e629eee3U, 0x11ef1ed80807e020U,
  0x1828241af51cfd10U, 0xee3b10ac2af63314U, 0xdec8ec0206fbc2efU, 0x190c40dafa152e0bU,
  0xf6c10ef6010018fcU, 0x44ff1902ee0e1701U, 0xfe1efcfae007fbedU, 0xd6e7c342f9dacb08U,
  0x506f721d8c3d00eU, 0x19d85229e80d1dU, 0xea151e11ee1dedeaU, 0x1202c8d306f8d424U,
  0xf41af5f82c13cd19U, 0xeae2e9f5e61920faU, 0xe0280107d817f3beU, 0x4022e04cef71718U,
  0xfdc0fcde0ce4ef0dU, 0xf8043dcb06d41a13U, 0xedd3e12fd205d610U, 0x2eb2601fd0700e1U,
  0xfec90bf6eaef3302U, 0x2411fc0528ebeb17U, 0xe60e1922bd55ffdfU, 0x60dcad610f4c933U,
  0x31ef4e25d50ade09U, 0xed18df3e03042007U, 0x28dcd80d0eebcfe6U, 0x36fdd6e60ece110aU,
  0xe8f10a2afdefc825U, 0xe9d3e3e2f82c0cc2U, 0xfb12f3efe60e0e1aU, 0xdfe5020fbae21f2fU,
  0x9bbf205e8093dfeU, 0x32db35e21b0329c5U, 0xf6bdf513b109e80dU, 0xd172c3605f818ffU,
  0x19f2cb0af51dcff7U, 0x1cf7be3201c8210fU, 0x1717f12ddeed1702U, 0x12e9a33b00f3df42U,
  0x2548fd16eb0df502U, 0x2d13351a24282c22U, 0x5f1c5d33602c531U, 0xfaf710db12e832e6U,
  0x13c40602dce91431U, 0x39e8cee8fb0adaecU, 0xf02adbf5ee18fd38U, 0xfcfc1031abd5d40bU,
  0x6b7071821e34e24U, 0x17df21e372b54faeU, 0x49b30e0a862f07baU, 0x1205296bc7251ce5U,
  0x5e69aded31cab19U, 0x68f80e480b842e15U, 0x21c9dc3dcd2515daU, 0x2203c4eff7f3c765U,
  0x6115eee5d5ebf823U, 0xdca762fda37fc14U, 0xf30db818de2dd70dU, 0xcf1ac42428144b13U,
  0xdcaa05f21215f235U, 0xc7dda82802bd81f0U, 0x856ee201627f74fU, 0x80a3212efeeb136U,
  0x130f060317f2e502U, 0x120ff1fa120f0ccfU, 0x21bda1bfbe50de7U, 0xfb12ef1ae42008f7U,
  0xf2fef811e0130320U, 0xed0af23123e1e3ebU, 0x1fb10f0c11082d01U, 0xae90e0f12f9d5edU,
  0xe018ea030e0bf70eU, 0xf20ffaedfcfe10ccU, 0xfeee121f08d3d1f6U, 0xf802000227eabcf5U,
  0x603f4040624e6f6U, 0x1602071ad10609ecU, 0xfaefe5f3dd120b05U, 0xdfdfcf1f3e9e601U,
  0xe15015109220113U, 0x626f11e04d9fbeeU, 0xe719e2f3ee0f350eU, 0x63003200d1b200fU,
  0x12ea0d07e711015eU, 0x2116e7fa201b0521U, 0xff6083309100f23U, 0x10f1d0120ed9efe7U,
  0x3328da261632ef1dU, 0xba2101e6f21203e6U, 0x8f22705f3c9fceeU, 0x16e1dff852f7c807U,
  0xef160804d820f5bdU, 0xf2dbf528e5c1f9e4U, 0x100425f7f60df70aU, 0x240a030126ee0a0fU,
  0x7f7f2ea1a0e0e11U, 0x120edc17dbfc041eU, 0xf800d71d10032213U, 0x19d2130d11f816e6U,
  0x110206d6deeafaf1U, 0xd1606fafffcf70dU, 0xf8fa062403f00025U, 0xecf601dd1cf6151fU,
  0x371600f1f8081833U, 0xf2f9f1c50f202810U, 0xe8e8e90f08ebcdfbU, 0x22f502d27d10dbddU,
  0xfbf0fb15bcfc03f3U, 0xd8dfd4010ef2f80aU, 0x200c28fb080d1711U, 0xcdc1c21fbe704f9U,
  0xec05fdf7f9f1f5e0U, 0xfac8c8fac423f61aU, 0xf612d6d5e5fdeae1U, 0xfed807ef1bed15fcU,
  0x23effdfaca11ebf2U, 0xfd1314ae0df5feedU, 0xa201707150be2f1U, 0xff05fa1c2a0e1bf2U,
  0x1407f105f9efe81bU, 0x2eef13def30d05f4U, 0xe30819fd13dc20f4U, 0xf0d9e1df4bd61c1bU,
  0xef0001efe423ff13U, 0xc9fb212427ea11f1U, 0x17ef1f02fbf6050bU, 0x23f4f9f4f6f618e9U,
  0xfa250cf9f61d070bU, 0xea15bbedd2fe0102U, 0xf61be503e50be2e6U, 0x1ea01f5050a0112U,
  0xde0afdcef7020801U, 0x1f25ed09f6ed09ffU, 0x1b0efbe21a0b0fU, 0xfc130c08fbd6010cU,
  0x3b0bfc302a1ff514U, 0xe233201d1fd50ed7U, 0xc6fd03f615e509efU, 0xfb0afbe93eed1b11U,
  0xf4fcfbf0faee0513U, 0xd1220df1dee22a01U, 0xc2903c7fffc100cU, 0x22fd1cdbfbfc0010U,
  0x150c0ee6ff09f10fU, 0xe340eecf5d30f05U, 0x60f061109fd090aU, 0xeb020212f8061717U,
  0x34000507fb0c1511U, 0xaf1fb11f8fb15U, 0xe7ffee10ce051121U, 0x18eefc0e1d08e208U,
  0x5fbd2111b09f107U, 0xde092c14080f1f13U, 0x31db381ef9f5f702U, 0x300bcf2441e2a10U,
  0xe0908010afdfff9U, 0xdf04f91fc5091bcfU, 0x11101be00d101b0bU, 0xaecf3fdfc0c0c17U,
  0xf0070dd7ff08f31eU, 0xfd212115c31c2cd2U, 0x171b1516eb0bfaf2U, 0xe9b7280e280d0431U,
  0xfe9e4ef0e16ec03U, 0xdcee1e24daff0cU, 0x19fcf4ee011c0916U, 0x1f0e61509fdee27U,
  0x270ef8041f07d41aU, 0x1f12fde42607f5fcU, 0x6eefc0e020505f6U, 0xfc23e32a521333feU,
  0xf7f7f50cf531ec56U, 0x7f80325ee0dfdedU, 0xa440fede300fefaU, 0xf5fb09fb110e0a1eU,
  0x192d01f0f0f305c8U, 0xe2e5f010e4162f2fU, 0xf7100e051431f70cU, 0xcbfb120c21050606U,
  0x1212f1ebd8020419U, 0xea0c0401fa071005U, 0xe20c19f008fbf921U, 0xf32810cc20f51610U,
  0x1107c6e60b09080cU, 0xeaf4011011ff22f2U, 0x1bef021b14eff5U, 0xf1281f024af203f4U,
  0xfbfb050201eb0e19U, 0xbeafcfaf8fbee0cU, 0xf220040bee1d0be4U, 0x16db29ef06e7dc0aU,
  0x21baf40a02f6f9baU, 0xe1e407f3f8012df0U, 0xf10c27fffcf3ec0aU, 0xd6021fb7011700dbU,
  0x2ee2000efc1d02f1U, 0x1f101002f1021e1fU, 0x1edf1e61a20d026U, 0xf5fcd51606ea03e5U,
  0x45eee7d80bee0f11U, 0xeeedd41517f90b10U, 0x3fa18000f140328U, 0xf3ddedfb50110cf3U,
  0x91ef604fe0212ddU, 0xfc17d9f618150ef9U, 0x1c110800f2dc0bf0U, 0xdef905fbfeed1919U,
  0xfa050bda1b0df1f0U, 0xcee3f9edcc0d2304U, 0xfa2509f80ef60705U, 0x409f8e007fcf6bbU,
  0xe30f2d07f3fcfa04U, 0xfa17ef0012ef19fbU, 0x28fcfcf4f303dfebU, 0x6f70ef522f50fe9U,
  0x3914d7ebdeffff04U, 0xdbd8e8111629ed09U, 0xf9ed251316d916U, 0xf1c00127ff54cdeU,
  0x1f512eecd082bf5U, 0x34fb0de744ffe5fbU, 0x16ea26e4ffe1f7f4U, 0xe6fb0fed1809f20eU,
  0x2befead12518d20bU, 0xff030c0827f4d4e5U, 0x1603e5eee00ffcd6U, 0xda17e5e6f820f90aU,
  0xf809f908ecf7d407U, 0x200d1f5f0001806U, 0x1aeff10af0f229f8U, 0xe6d4f61227fefff1U,
  0xeaf8facc010a0f17U, 0xe6c1020918b22252U, 0xe608f914ff021223U, 0xa312030a02f3c8f6U,
  0xfeea1bcb1510fae1U, 0xfdc7162010c505ffU, 0x28edfdc7de1c17ecU, 0xed0415ea0ed7fd3dU,
  0x1a04fe1b120ab2ddU, 0x2517e8eb091015c3U, 0x1622c90a250881U, 0xfe25e8e5010d0128U,
  0xf201ed11cf27c6ffU, 0xd914de22f3e41bc5U, 0xd7271f20230f1f1cU, 0x1a1815fc27f116dfU,
  0x1016fce11a081426U, 0xddef48f635bd090cU, 0xfed6ff0803b600f8U, 0xd8161ce3151ad42eU,
  0xd7de06b802081ee6U, 0x210e08f3e1fffbe6U, 0x10ec09ecf62412ceU, 0x32030dfd04d2f80eU,
  0x16e412fdf813e5feU, 0xd1510f71716202dU, 0xfff2f00bfc0cdb2bU, 0xd09605f6ea1b0adfU,
  0x1fdfb02ca28190fU, 0xf60aeb1a2200fa02U, 0xea16fbf9111dfb1eU, 0x1e5f50625e7ed1cU,
  0x3019e5eb30f30b0eU, 0x1427b00b2912121fU, 0xdbdd140f0cd8ffd6U, 0xd32c700faeae5ddU,
  0x250c0b100a4535e8U, 0xffecc0ead72712dcU, 0x27e904ff013721ffU, 0xf702eee200f10523U,
  0x15e6fbede3b10cc4U, 0xf4fceff7f8fd000dU, 0xd80a10f9e423fdf1U, 0xeaedeff3f13331ddU,
  0xadaf0fce518ecfaU, 0x1908c30f1ce6c008U, 0xe1a281924f40ad4U, 0xfcdbc5ea14cff3ecU,
  0x23190b1bcdf70d20U, 0x1be0f9e629eaea22U, 0x7ebe0ef11e2d3f1U, 0xe8e717dd09f30dcfU,
  0xebc62df6e7222c24U, 0x14e70cee24edeee0U, 0x9ca0eecbb22010cU, 0xf1d0150ffef81d39U,
  0xf80b0d0cfef5030cU, 0x1efc0f0910fde9e0U, 0x5e9130fe8080018U, 0x300d8f7f91b0a25U,
  0xf3e5eff5effbfe3aU, 0xbead21902eddddbU, 0x1ffb09211d1bdbf0U, 0xffe4f3ebf8d4f9f7U,
  0x1208f4d2f10d252dU, 0xdc08021418cc0912U, 0xd0f0e70710e23e07U, 0xd5e816e805f30cf4U,
  0x101aee0af3ef0209U, 0xfe09f8f1cae50207U, 0x260000f3fb251504U, 0xd7fefe15fee5f329U,
  0x2d351030f11226fcU, 0x1e28d8ff05d8f9f3U, 0x13ee03f2100e16daU, 0xdce7041bf61b18fbU,
  0xe305fd09d014fc08U, 0xfd1ed0f4ea2cf203U, 0xdfd901fb07061aeeU, 0xff0cfeec3103e4f8U,
  0xc1d12090e14f916U, 0xfe516ed27ef1506U, 0x4cff5060efb0005U, 0xf909fbefe726fafdU,
  0xfc0ef6e6101f0501U, 0xffe81aedf0e20cefU, 0x11eb0deff7181d33U, 0xfe81e0be7e0ff28U,
  0x21ee0bff01f2f9eaU, 0x3811ee0ce5ecf42dU, 0x1dfb0e07f9f7ee1eU, 0xcb002b06e60f18edU,
  0x13fadd0be9251718U, 0xfe1bde0c14e3e4dbU, 0xf512210e1a0ddd1dU, 0x23e5e509eacf1bf8U,
  0x1d3216fd0a253307U, 0x401f2f8ed091521U, 0xf4fdf5e22c0427fcU, 0xfe00090202edf8ddU,
  0xfcf5fef4e72100efU, 0xe8ec01f7e60ef3edU, 0x24ef0a02f9162425U, 0xeff7162deff6ef0dU,
  0x19000719fedf0100U, 0x1b9d826cde52209U, 0x1cfaed0be71afa06U, 0xeab613ed0e050f0bU,
  0xecf9d802d62c0816U, 0x819d60f0cd8d8d7U, 0xf90209df120c1be5U, 0x200eed1418ebc9f7U,
  0x211ffc1cd4160a37U, 0xf8dbd723301f1e13U, 0xcef21b2d10cad1f2U, 0x812dd18ea2df0fbU,
  0xdc18f4ece6180c1aU, 0xff03e40cfff212e1U, 0x14430d02ea0a233bU, 0x28f920f2eee30a28U,
  0x122f102c13e706dbU, 0x3d5cdfad5f3ebf7U, 0xd1f409f2ff0a06d3U, 0xbbced505fc091412U,
  0xecedfee3d5241ff2U, 0xfaf6000325f3beedU, 0xbe301b05f721ef0dU, 0x9f9d73712eae9d2U,
  0x3201ebd804062613U, 0xef806071a0ff30cU, 0xd8de2a1e12e8a404U, 0xd8d0dce3f811e217U,
  0xdee7fffce208f0d4U, 0xf4e317d71bc81cceU, 0x180b0e1ee4060c25U, 0xd3f1f10fffdf122bU,
  0xf1fe1324ebe00eeeU, 0x18edcc19adf1e00dU, 0xf719f203f3feece8U, 0xfbdbd7f3f911060bU,
  0x17f61017f21e0426U, 0x1412fadd320de5e5U, 0xea10f5e82930e70fU, 0x2dd16fd01e8ddebU,
  0x1ce905021d142413U, 0x2328fd3c0812fdU, 0xfcd826ff0fdb2800U, 0xdfc11d31f21bf201U,
  0xfe09020aee0bebd3U, 0x120708c0fbe417f2U, 0x2d1ee414ef01030eU, 0x9e71af3fcd7061cU,
  0xacae71bfd02c299U, 0x3c7f101f9eb1c0bU, 0xd2014ce9e6060323U, 0xbdf5fb4112f0c2d9U,
  0x12ef060dec0917eaU, 0xfc1619001eedf9efU, 0x1de7161fe7ec00f0U, 0xacf9e4e2050cbd08U,
  0xdde8b0af000e2af4U, 0xafec0b2d05f81199U, 0xb7ddf3e5f2fbfef0U, 0xbf901f31bd434d2U,
  0x18f10908c8ecacedU, 0x84f9b79e01160bbbU, 0xf4cb0f22a3fd1316U, 0x18cdf7b0eaf31213U,
  0x141efe52d2ffd0caU, 0xf41dec271fe4f2d0U, 0xf3e5b9fa0f0a1de4U, 0xc1b12faddf2090cU,
  0xfabedc030318f031U, 0xe60944e91d00ebU, 0xebf901ec032a01f6U, 0x38f2caf8e8e7decdU,
  0xff2b0125e74bf425U, 0xeeae7f50600e6efU, 0x50d6eb1906e2c7e6U, 0xf01df093750cdffU,
  0xcae606d6c0fad8c9U, 0x1ddc0e0ae8be02d5U, 0x1923dcf8ecf307f8U, 0xbfdfe131901f5f8U,
  0xdbd0f4cc180ffcb7U, 0xf8e6011ffbe405ffU, 0x1822fefbd60708f0U, 0x14f611e6d7ddfcecU,
  0x1910011b260c00f3U, 0x2703fb192df305ebU, 0x12db0e0fef050a06U, 0xff11fff4e7081403U,
  0xe0ebbff530c9231aU, 0xe2f4f44025091312U, 0xc014dd2be72705efU, 0x803f8f733fb2316U,
  0x6e70ddc17d3edU, 0xe0faf2ff0706d112U, 0x5e2e5f012050b07U, 0xd6f107d3fa08ee13U,
  0x1a0333e6fc13cdf2U, 0xd30a1ae1c20903f9U, 0xf9ef2d18f9edb8f3U, 0xc28ebd2eb1501e0U,
  0xe8e4df21f3f8ecf9U, 0x9fbc9ec02f1fe0fU, 0xfaf5f8e8d4fe0310U, 0xc9f9f00b16f018f4U,
  0xe9f6b8ebfce7eafaU, 0xced09f6ebd60c10U, 0xebedf00618f9edc9U, 0xf0fb02112ba4ff09U,
  0xf2ce05f8e800b5f8U, 0x182713f204dee8f1U, 0x29b0f2fb06fee6ddU, 0x19ec1eedfeffd410U,
  0x23cb03d03a26ff20U, 0xf3271ad21bda3dfaU, 0x1223f613c60be200U, 0xf42e20ffd820e80bU,
  0x11d8d503ee08fc18U, 0x1f9fdf8efdc3924U, 0x262b2bebce06fffeU, 0xee11f7090628a321U,
  0xfefbb31c12fe0811U, 0xf4171aef0c072be7U, 0xebfbec02dff5d9d2U, 0x3fcd4e731f4e3ffU,
  0xf30a1809ec14ae08U, 0xbd07be17c1eeebddU, 0xe3aea25eff52009U, 0xe1f1ae7dd12f3f2U,
  0x17f00c0df9380a17U, 0xe1307d621f038ceU, 0xfaf2fded0f2fe01aU, 0xfcf42320e3e1cdddU,
  0x2fb90911d521eb31U, 0x18fe0707320e13ddU, 0x3f3fd129ded19f3U, 0x3afdc00824d7f3f9U,
  0x726c523ebfa18fcU, 0x46d8facb172104fbU, 0xde8ca3b053193ecU, 0x2503dee1360adde4U,
  0xd3e418f41211d214U, 0x4ff0802e21311b9U, 0xf221f1c8000400edU, 0x1a1be907fadcca3cU,
  0xd7c2e3eefaf407f5U, 0x27e919e10efc54ffU, 0x12feff159602b01bU, 0x42b35f7c00f11b7U,
  0x46f1dd20e000e5eaU, 0x1219012a179e3709U, 0x6efef3dc1ddf10eU, 0x13d6e2d00fed2f33U,
  0x1e0fddf70306c9daU, 0x5d225f21cf1fac7U, 0xd8efb5f6fc14e503U, 0xfc0fd80e02d5c0ccU,
  0xd781eef909fcc810U, 0x142e7e9022aa8f3U, 0x2814e80619d205f0U, 0xafcedc9f7fefe0dU,
  0xf5f21c43f9061cfeU, 0x1aee03f924f82ce4U, 0x23071230c1f4ea0fU, 0x2743340fe4031e01U,
  0x1deac6f2f200e8f5U, 0xf7e0f0fff3c93615U, 0xf5eb20d3fa1620f2U, 0xeffeae014320fe9U,
  0xe30300041a16ef06U, 0x3bbc09f0f3f7f3e8U, 0xcf01f40c3321c8ccU, 0xe906e82b39d712d9U,
  0xe9e112df05f2f20aU, 0xdb06c2eff213b7f2U, 0x1f2ce8ffe507c70aU, 0x6faf817dffbf106U,
  0xefd61b041a0a0224U, 0x20ee1f301ddf0a17U, 0xe92d17e6ee0f0122U, 0x41201804f3190bfbU,
  0xbd7011d0ed4e0f3U, 0x3118e13519f71cfbU, 0x41312e5162f3a37U, 0xfb18e4ea0d0bc4ebU,
  0xd8e5251ef420ff06U, 0x3addefb70ef60f20U, 0xcbe6b3fa1736f4f1U, 0x202efbed15330b02U,
  0xdaea1af6c6ecdbfaU, 0x914d4ddeb170701U, 0xf3e6f9dc00f9faeaU, 0x210f1231e7f4f610U,
  0xf0e3e30610faeb31U, 0xf5033e3a04e9f93fU, 0xee8fdcd0a04fc36U, 0xe166db1c29f1f501U,
  0x2072cf6def01717U, 0xf72f1f02e41dfe08U, 0x32251a2853e41fecU, 0x13073bcc12fe3dacU,
  0xcb1b0d281213e211U, 0xd7c9b9090712f112U, 0xa7f8e02a190629dcU, 0xcdd525000c0c14daU,
  0x40f25ff26f6084dU, 0x45db28de1f0d3518U, 0x17920c0ac2071411U, 0x4ce8f4f0f10ffb21U,
  0xafd17d8050cc9e2U, 0x19ea07f817f6d1f2U, 0xc413d210f7f0f8dfU, 0xe1af0b3f7f6d7dbU,
  0x3c8e8e4ee0995efU, 0xe506faffe9d8f213U, 0x5e070120fafbf70fU, 0xdbe2e1c11501dddbU,
  0x2913cdcf10bc2602U, 0xbfeecdf0107fee8U, 0xbfdddfeefd5f801U, 0x810312ffdefc1205U,
  0xbde6f2850ef90509U, 0xeda150b23c4b3e4U, 0xfa00f6b9db03fde7U, 0xe8f516d7010d0823U,
  0xe6e9e6fc1320d210U, 0xceec08182e0610f7U, 0x61814d8f5fd02f5U, 0xdf8e1d7fd0cfe0fU,
  0x31fd03fd1014db08U, 0xaf2f3f40f16010eU, 0xed1b06f90d260c40U, 0xef0fff090c081bd4U,
  0x12df0cf23201f20aU, 0xfadb081317dbe50cU, 0xe4fef4f8fce40eedU, 0xd20704fe0d11221aU,
  0xfe191fe511f6f11dU, 0xffee011600f202e7U, 0xfbf4f7f8ff06e4dfU, 0x1f1ff5f01014f50fU,
  0xf1fa15fffd0ff20eU, 0xec06010e0ce9f5f0U, 0x51507030ced0f04U, 0x8f2fbf9fb1305fcU,
  0xeefedae3fa0d0608U, 0xefeeb18030ee8f9U, 0xd220efc19e21d1aU, 0xed040610ff0214f0U,
  0x1205050f11fd0d03U, 0xaf4f908f90df8faU, 0x1315e51815ee02f3U, 0xf016fb05fe13f8fcU,
  0xfcf4140509ea0001U, 0xd1f02fe021907e9U, 0x9e7f3eaeb05eef0U, 0x602f8e1ffe40615U,
  0x1adffff0f7f4fa0fU, 0xedf20118effa0106U, 0x130ef5f8f81506fcU, 0xeaf9e4fefafa0afaU,
  0xe1fdf1fd0010f2feU, 0x18f4f90bfef2e4eeU, 0x202ec050f1b021aU, 0x70bea01fbf3f7f5U,
  0xf9f10b0603f91613U, 0xf40111ee000804ffU, 0xd80105dd00fc130bU, 0x80e060efffbebf9U,
  0xfaf80afe18fdf0feU, 0x3ef11efec18f3ffU, 0x6f6f313e01007f7U, 0x1501fbff01f61cfbU,
  0xff1cf916fa0ff106U, 0xee15f82ce90d1de8U, 0xf4200af0fe1a17fcU, 0xfbee1112eb101efcU,
  0xfcf4f70af012070eU, 0xfc14fc000328ea17U, 0xfaed19db080c2223U, 0x50df115f700f20eU,
  0xdfb09fa0c0bf0f2U, 0xcfbfd1504f2140bU, 0x603ff03f8e7f6f8U, 0x31017f6141f04edU,
  0x81803fd070afb0dU, 0x403ffe6d6fbff00U, 0xe300fb01d504ff09U, 0x2f6f10d0eee140aU,
  0x1307de15fafd0809U, 0xcf6fb14f6001406U, 0xf050013ecff01f5U, 0xf3f91f35e909130dU,
  0xf7efdff2fd02fbf9U, 0xf1ee0af7fbf3eddfU, 0xf80c0b1b10ef0807U, 0x508f50622f1ea15U,
  0xf3f2ef010cf7e6e8U, 0xfaf512051608fff1U, 0xfdeb021ef90c071aU, 0xf006fa0d2705faf7U,
  0x5f0ef01ec050902U, 0xf215e419e413edf4U, 0xe507f2f8e6eb05e9U, 0xfb12f20019010d01U,
  0x1509f3191bf607f0U, 0x20dace080f110b09U, 0x1a0ef4060d08edU, 0xb0507fa1004020bU,
  0xd9f5daea1507fbf0U, 0xf2f3e40b13e3e7U, 0xfffce1101e04ee02U, 0x1509f20b04e8f3f4U,
  0x9edfe1313f3080bU, 0xf4e5edee0b06fef2U, 0x3effbf507e5fd03U, 0xecefe60c190d1609U,
  0xda01eecaf219e903U, 0x9ee081011ec09fcU, 0x1f70711f9f2ed07U, 0xf0052022fbe3faf0U,
  0x1405fc081100f8e4U, 0xf3f1010ee40701feU, 0xfa1dfed506fa18d2U, 0xe703fbfaf505f6f4U,
  0xbf3f6eeeffdf4fbU, 0x11010ee1507f7e0U, 0xf2fc02f10601141aU, 0x1cfa090016ee0afdU,
  0xfb060b1b15181ff8U, 0x22e515f41cda06ecU, 0x9f3040b04f70207U, 0xde0a05ec26130f0cU,
  0xf80c21dce901ec19U, 0x15030d1114fdedfaU, 0xf6f8f7f3f4f5e811U, 0x115f826f3fc230aU,
  0xfff1f916f90b00faU, 0xfcf20709f9040fecU, 0x802eaeef9f308f7U, 0x209ed03f909fb15U,
  0x10f9f0f9ee06f70eU, 0x1afa03fb0f08ec07U, 0xf60cf323020ee615U, 0x1415f00ae1fcfef4U,
  0x30c160e12f6050fU, 0x15fa001601dffdfcU, 0x100aff00ede60a07U, 0xe7fbff1c2009eb04U,
  0x310f8f9ece6f917U, 0x11fdef0f18fa00f6U, 0xf10bea10f3fd18fcU, 0xf3f8070ffcf30602U,
  0x5e2fc20f1f4071fU, 0xf8edf410da01f2e6U, 0xfffc15db041915e5U, 0x260ae90efaf30304U,
  0xfb18f7f2000bef16U, 0x4fcf2fb0317fe18U, 0xef04f4141103ffedU, 0x4fe0d1304ff16dfU,
  0x2014120b091302f3U, 0x2adcf70d0cee0bf3U, 0x8ee1afaebe8091cU, 0xd60401181628f8efU,
  0xf20ef2e611e50812U, 0x1f161aee0cf401eeU, 0xd901e6f6f8eceb03U, 0x14f7fb1ef8f2020cU,
  0xe0dfe610f80fc908U, 0x70ad0e800380bd8U, 0xe9fdfcdeede200d4U, 0xf1ffcbd405e8f81bU,
  0x90405f004cfdc0dU, 0xf2d249fb00fe170bU, 0xd5f4080114d31adeU, 0xfb36f6ecd40cdedcU,
  0xf70e06e0060610fbU, 0xef0c150dfcb4eaacU, 0xf92afee8cfb014bdU, 0xf1dceef9f8fbdc10U,
  0xf023dda8b8e4dfd0U, 0xe221f307f209fed6U, 0xdc2bf50de7fded06U, 0xea15d7eaf4010ff0U,
  0xe20217e7f60def36U, 0x41c2dfc27ebf23fU, 0x25fe09201c010130U, 0xeacb15fb01cfc8d0U,
  0x702f13cdc22e3U, 0xeee31132c909edfeU, 0x26ebd4fbf800ef1fU, 0x215904d9c308e93bU,
  0xfbef2c0014d3ffdaU, 0x1013d1f1c11dafd1U, 0x630cce8f0e1eb07U, 0x242bebfaf213dfd2U,
  0xdfcf51fb5f503eaU, 0x5fb9e040a25cffeU, 0xeaf001f809e7ee00U, 0xe7f0dc39eb344ff3U,
  0xee05ff11ccd3ecd7U, 0x13ccdd0e0c05da03U, 0xcbcee7b9f6dce4f7U, 0x26f3c91108d0f20eU,
  0xf5d408f118d2b7f9U, 0xd2d612f40917d3d5U, 0x11bdba35fac7eab9U, 0x510da080533f0a4U,
  0xe0f61137b4d0eedeU, 0x48e0cc7f2d42a00U, 0xe19dfd2c2f212f4U, 0x9fd033f5edf61121U,
  0xdaf8d6cde2dc1c1aU, 0x2922253e44021308U, 0xece1f8edd0c1e108U, 0x2039e0faf614f5d5U,
  0xd72c04e80f25f103U, 0xe413f720e20907c6U, 0xfe12fcd90cd607e7U, 0x1b14cffcf4f3e016U,
  0xe0f0f5e634b1d6deU, 0xf8d61e04d9f6141eU, 0xe8cdc6f81dc8e718U, 0x102420f2e05217e2U,
  0xec7f2eb20fbfe0bU, 0xdef35f6fbabfe04U, 0xd31ff8b5eabbf9f4U, 0xe2120aeeece80f22U,
  0xf5fbded4f8c005d3U, 0xf41b14f8d6db110eU, 0xcc03f881f4eeb007U, 0xf113b3080c1b04f4U,
  0xbefafdebda22d901U, 0xe1516e600f7e523U, 0xd172a1b03092714U, 0x4321c0aecd5e7eeU,
  0x111e1afa1ad204d0U, 0xe3f43913ef0e1204U, 0xd4caf5162101df2cU, 0xfd3f1cf3f6360b2bU,
  0xfcc9fdef2ffcead5U, 0x3e2310f8000dd8c6U, 0x121113b5d2e4ebe7U, 0x91ce1f8fe1a29fbU,
  0xfa2fe80219b9060fU, 0xd529dfefd83a160bU, 0x6fd0bf9fde7d81cU, 0xe23df9ebf831e9e2U,
  0xeefdfdfaf8eb1023U, 0xb170518dbfff8dbU, 0xe7f3db0ecdb9fefbU, 0xfb100e15f1f9fa1dU,
  0xebeef3060bbeeedaU, 0xe0fa2af8f204ffe9U, 0xde3d9e819e409e2U, 0x1b1ed4241417e435U,
  0xecd60c35ede7e1f9U, 0x150df5e6c100edf8U, 0x140beddcc423edfbU, 0x80ee412f82c0efcU,
  0xeb10f00af3e2162cU, 0xe815ea13e2e5f801U, 0xdc11fff4e2d3db15U, 0xf846be1b0b0ff8c2U,
  0xc733e90e00fdf119U, 0xeeeedd12dd30e128U, 0xf5fc050414e2170bU, 0xefe2fa090afff1fdU,
  0x1802ff241fcbebcaU, 0xcfb6061f0112f0e4U, 0x9cedaf5fddf0edfU, 0x4a0dfbcbc73d0cf8U,
  0xf2f2fa3107020b07U, 0x190830f1baf4e2e5U, 0xe949c90607fd0be2U, 0xf00c17eaf8e5060aU,
  0xf01c5ef01d71b55U, 0x7f3f1fd10fbd027U, 0xeb030c0f00f50cf0U, 0x103ef80713290906U,
  0xa12e90bfcf5e02dU, 0xccfc0bf22e20ea1bU, 0xf008f7e5ebdeddf6U, 0xbe70af5fef21901U,
  0x34fd13f83bf5fbe3U, 0xf8f13005faef0403U, 0x31cfce0bea030922U, 0x400f05feeb481b2eU,
  0xcfce234150105d7U, 0xfafb2a24c6dadeeeU, 0x13251fc6dccb08cdU, 0xbed3f5d6ffd13012U,
  0xf3fd02e6dff42029U, 0xeb0c251ce7002f0dU, 0xe3defe210be4e6f3U, 0x342301db1e270eefU,
  0xb310eefef024f327U, 0xacaf01003eaf636U, 0xe25f5ecfcc629f8U, 0x311fdd13edd3f21dU,
  0x10f5e0fd4afe0af3U, 0xbcf70a18de1ffafaU, 0x1dddc42c05d23018U, 0x261af047093ee4fcU,
  0xf9defd431de4eed8U, 0x2204f207d2fee009U, 0x43216f0ddece30bU, 0xecfad4eff40e0714U,
  0xe62bf6eaf1c4e62eU, 0xe6e72a0804f7f412U, 0xf80bfce7f8cefae7U, 0x450dcf71d052fc3U,
  0xf62bd612452aee62U, 0x33cde9f8f6b82becU, 0xe907f7e70bedf3d1U, 0x3e22053ce3d5ed06U,
  0xfef3ff0efed3f3eaU, 0xefee1beff0050d05U, 0x1fe7f62812f7fb0eU, 0xfeb0efb1c2e18e0U,
  0x7c00cf316fdf2c0U, 0x30d931b3cfe8e8c2U, 0xfbe62cf5e5e3d9d4U, 0xf7fef4110234160bU,
  0xe81bc0cbc8eb0238U, 0x180c2c1e0ac12526U, 0xdb1901e3f3d2e200U, 0x5eef801f50bd2dbU,
  0x1702e323181aff3dU, 0xe50ae705cd0606f0U, 0xde2616e8fc0702f6U, 0xd807c1d81f1df405U,
  0xfefb26f7f10f17f5U, 0x30effaf9f82cf80aU, 0x1101309fa28e20aU, 0x11f0fd0906f90ff4U,
  0x2702010c190cf606U, 0x2fef30020012a08U, 0xfe0a2002091ff808U, 0xfef9f97905071bU,
  0xe41705fe04f61dfeU, 0xf206fbfbe8ef0601U, 0xe1f937d61001efdeU, 0x3fdf9082e23fd0aU,
  0x22f9902617e1eddfU, 0xe7efd917d51be30fU, 0xdb1401adf217f8deU, 0x4f8d6df31070affU,
  0xeefb110bec11cffcU, 0xdf1ef20a0306e50bU, 0xd1107050809fb0aU, 0xea00040316fafbedU,
  0x1a12fa0914f41d0fU, 0xe5fd1dd6fbd21af2U, 0xfc05fc1211d131f9U, 0xd7e6f1edbde1e20fU,
  0xe40303d4ea2b0bf3U, 0xe0f40c0c13161824U, 0x18ea2928eb012ef5U, 0xf8180de132fa0916U,
  0x1319b81bf0e200eaU, 0xe9fccd1ee810cd16U, 0xd420ecd01d0bfbbaU, 0xe418cbd73d0d0909U,
  0xf911e30fe71eef07U, 0x191bdf03f621eafeU, 0xff620200af7dd34U, 0xedf5e91f0afd06e8U,
  0x1908e1f20601fdffU, 0x6e0f5e6fdd52d0aU, 0x1cf91e160420fdfbU, 0xf511e7f4f106ed24U,
  0xd91602dded1303f4U, 0x10e3fb1afa11eef4U, 0x9ea26f0ef120ff9U, 0xf2fffed32afc000eU,
  0x1fedac1ef0cffa18U, 0xfbddec19ddfff30dU, 0xe01304d713102dcbU, 0xe809cafa11f9fffbU,
  0xf5f9fdf808fce2fcU, 0xd0cf4fd0bfae014U, 0x110205db0b2ad812U, 0xdeeafa0006fa09e0U,
  0x1a11c8f5fafc02e0U, 0x1e51dff25c915fcU, 0x29e30b05e5e221eaU, 0xd4e4fd13e7f0fbf6U,
  0xd5330bd7020f28d6U, 0x3091239ed01fad7U, 0x1b0922f0f6f01419U, 0xf6f4001ff6f0feU,
  0x1911de29201d08f5U, 0x19f7f3ffeb0d23f2U, 0xe54c04c72ff930ecU, 0xe30ffe0c210128fdU,
  0xf71616e608fa0447U, 0x12fffdf70b230821U, 0x11ff5f8f20efd37U, 0x1f2110c11e30cb9U,
  0x3a0bedfbf71105f5U, 0xcd8fff111f10101U, 0x27f6fb0c0c0725fcU, 0xea22f81ad622e50fU,
  0xe33319f5e70707afU, 0x1f0919001ee1050bU, 0x19211cf3010a1705U, 0xf0020bf4140cfbf7U,
  0x15e0ec13fce41c14U, 0x5dddf11da17120fU, 0x162d16c1000c3f03U, 0xbbf015011911fd02U,
  0x1e391102fe14ea28U, 0x81ae7ce07041ff3U, 0xf30918fe0f0b0210U, 0x5e918f7fddb00deU,
  0x350ddefd0506fe18U, 0xcc7f7290723051eU, 0xdf6031912391802U, 0x22122ae9f5051fU,
  0x50d1dfef511f1f7U, 0x500ff182d0ed902U, 0x512061115102209U, 0xe20c1f1219fb02e7U,
  0xae200fd12e50e16U, 0xf7deb7f9f9ee0809U, 0x202325fa010f0f05U, 0xe912ef0a1d110f07U,
  0xe21d1cef101313f7U, 0xa180ed8fef30021U, 0x23de0a1c1be20a0dU, 0x5ee23ff000908c1U,
  0x3a2ef41607f8dc10U, 0xe9fd0417100702feU, 0x1fa17eb2d2015f3U, 0x1c0c1e26ed05f913U,
  0xf6f610f5f420f5c4U, 0xf5f1fbeb47ed1a08U, 0x7f41f0818dd14f5U, 0xb120e0322ecef1dU,
  0x6f5f21ef3ed1102U, 0x17ddc70ce6e1fd0eU, 0xf3ff1de6081d08fdU, 0xecf80ded23000f16U,
  0xef181106e3fbfd12U, 0x1802e1e215041a05U, 0x1fc001ef7f60502U, 0xfddf181e0d031be7U,
  0x3c18fdfefc070405U, 0x813f32a0716fd0bU, 0x21f0f406160819ecU, 0x51506ffe2fd3912U,
  0xeffa22060cedd7feU, 0xe0e800f23307e00eU, 0xf7ef1afa111a09f7U, 0x718062a36d210edU,
  0xb1ed93915daf7fdU, 0x5eb81fce9160106U, 0xeff219bff30ddff8U, 0xfb1cddf00b0ed8f8U,
  0xf5170718f6f7f7f4U, 0xdd15e0d309fdf7f0U, 0x1112031af115f007U, 0xff0f0e041af7e0e2U,
  0x430edbfb11050effU, 0xe41f0100e415ed10U, 0x8e82b0217cde811U, 0x7e4f0f3efe92c01U,
  0xfa070df80d09d519U, 0xd9f7160f16f1ff0cU, 0x1f30fa27fa0d09f6U, 0xe80139eb39ed0e0cU,
  0xa2dd60eeed3d715U, 0x2eec9014f00104f8U, 0xdc0422e6f70601f4U, 0xe025e7eafa1a01e0U,
  0xec1519eff00c030cU, 0x12f8f4f712150517U, 0xfa141e02fc1b1919U, 0xf8f90a4709f9fde2U,
  0x4f12f8070d08fd20U, 0xeb0dd709fb0ff603U, 0xfc01273419f2fa22U, 0xfbd6ec1def0e1d09U,
  0xed04f0ed0ff6d3f5U, 0xde0a19fe05e21d08U, 0xf914ff21251e19fdU, 0xe503fded47dc0113U,
  0xf0fb031d20edd9f8U, 0xfdde6e28f36e422U, 0xd8ed06fbfb19c52cU, 0xe4e3ffba02ffdaefU,
  0x2e60a1bf5de0bf5U, 0xf61ed4c825161910U, 0xaea231fdb17cdf4U, 0xbd0d04f70622e81dU,
  0xed238abae004ccffU, 0x9f110af5f8fdfebdU, 0xdeffdb021ff901ecU, 0x71125fa05da08e7U,
  0x408f301d9fefb9aU, 0xc613eef410270dc3U, 0x8c80c1ad8011208U, 0xcef119fd1edde1cU,
  0x12e2f0e8fdaeeff9U, 0xc5ecf5b0d423ea0dU, 0xf2f5efdb8112c2f3U, 0x1dfbdf06f00805cdU,
  0x2d091511f9e907f7U, 0xf90c022b01bafa21U, 0xf621ecc2bb07e4f0U, 0xf80cfd02f10619ebU,
  0xef0df3fbe7ddff17U, 0xe0e7fad3120ce0fcU, 0xf4ec17f520d122efU, 0x3c604fc00cfc7b8U,
  0xbc4f3faf915bde5U, 0xe7fd1cfc0dfe13f9U, 0x2dc06f8030cfcd9U, 0x17bafdd6d8f4ca1aU,
  0x7f01cfa340c0df0U, 0xbf022902c82600fcU, 0x16020a230c19221eU, 0x1c0c0efef0041408U,
  0x40ef5eeee0f1723U, 0x1c17d5120bfdff11U, 0xffe9f4f925030af6U, 0xddfd141805f8fefbU,
  0xf41f020af60aeb16U, 0x2d0edd180e27f623U, 0xff09cb02fb1a09efU, 0x7320e21171617f3U,
  0xc03e20f01ebe9e6U, 0x61bf2031d34e408U, 0x6180bf6f42beebcU, 0xe8070cf7f404e90bU,
  0xcff02c11ef8fc0dU, 0xcd060906eee2e601U, 0xf0341af8dfe3f6feU, 0xd520ed07e50efdf4U,
  0x12eb1417ff16f410U, 0xe9fdfefd2efaf6c8U, 0xffecf5ecf317fa2aU, 0xf2fdfff8e3def60eU,
  0x6f011fc0fdff507U, 0xfdd6070516f4f310U, 0x1f7ca101c1cd1faU, 0xec1102f304efc201U,
  0xe8fc09f107fbf1e4U, 0x1d050cf41d2cea16U, 0x2dfefd07f7f723baU, 0x140000121008f31dU,
  0x170fcefbfaeff715U, 0x13fbf3e2140df3f1U, 0xf7e5ddd6fef7e1feU, 0xfc31f500ff08150eU,
  0x30fffa14f70df312U, 0xfb2018d8fa000e25U, 0x14f90af201051e07U, 0xfbfff21413e20cffU,
  0xfe23fade12ecf90eU, 0xd0ef30eafbd51811U, 0xe2e40201120804fbU, 0xebd7faf003f3feecU,
  0xf11e0ae1ec0f03f3U, 0x1f604e4e7da2816U, 0xf214ed021a1dfabfU, 0xeb040f0128fcee2fU,
  0xfff901da0a12ed00U, 0xe0f326000d12f3edU, 0x1b07e00d090d28f6U, 0xf32607e5fcff170aU,
  0x90dcd0d0a09f007U, 0xfbfddbef0114f8eaU, 0xb2d1b05390f0208U, 0x131af8f824f5f2f9U,
  0xf21e002306f60b0cU, 0x39f806fd0eee09fbU, 0x2df222f2ebe10a0aU, 0x716fc2a1152220aU,
  0xff14ed0308f2170dU, 0x21ddff1ce8e70effU, 0xe110904f51007e5U, 0x2e80706fb06cc0cU,
  0x70100ee052fedfcU, 0xe01d101805df0cdfU, 0xff70e0ffbf809f0U, 0x1c17360cf814feffU,
  0xe510d7e7e9280811U, 0xf1e02080bf62012U, 0xf80dd90309f8ccfbU, 0x11f5fef50e041c15U,
  0x16ff2607fbf7e815U, 0xdaf4ec1617e21319U, 0xf0eedc140f18db06U, 0xf754e019f7fe48e5U,
  0x18ef10020be60713U, 0xf811cbf51613e404U, 0xfa0cf718fb160ff8U, 0xfbfc020400060df8U,
  0xff0efe08f1e0f60cU, 0xe30ebec52f0f1038U, 0xf3030904fff5d906U, 0xfb15041aeb20f5d9U,
  0x1d0cf804ea0dfb1bU, 0xe40a0af813d91613U, 0xfd0313ddf20200efU, 0xc0405bd1ffbff12U,
  0x1408f9030719e2fbU, 0xfd021cf41fe3d600U, 0x15e802001b0e0b09U, 0xd701f7ea04ce0dedU,
  0xe5f032f4fbfbee05U, 0xfce1fd08d60eedffU, 0x5e7fd11081713e8U, 0xc01fc0cffd6f6f8U,
  0x9f2eff40604f124U, 0xe71404f4ffdc0de9U, 0x1f70c15ebedfefeU, 0x1937ea25f610271dU,
  0xf8f002daf1f90915U, 0xe4fbd0f1040a04U, 0x18171e12110315faU, 0x10fb516eaf3dae0U,
  0x601fb05d90ef423U, 0xb1cc61b2efdf2f5U, 0x1bfd2211fd0bdb07U, 0x33f7c7f70602f7f3U,
  0xf02b2b13262d1fe7U, 0xeb0eef0df8fc2dcfU, 0xdd100214070cfdf0U, 0xfadb1c03f903ee00U,
  0x120310e20f080101U, 0x2de019fa1407f80aU, 0xad916fd10fbf8d5U, 0x23c1235e31bffe2U,
  0xe9f105f7ef0a0316U, 0x1d12fbf20ff1fe01U, 0x38020af6f91df9e7U, 0xbff0bf702e8ed0aU,
  0x171c0a17b80cfffaU, 0xe6f70d041a2b01f6U, 0x48dec7e8120bc2f5U, 0x1531d9ef061a0de9U,
  0xd8c700120e1c0df1U, 0x2918d3ea3633d3f3U, 0x9edf214f9f705fdU, 0x50903fadfebf9fdU,
  0xb0eb1dc06f0e80fU, 0xc80fa5d5f7050eedU, 0xd3e9c1d9e205e5f5U, 0x10fc80ab733d38fU,
  0x17021af2ef0a1cfcU, 0xfc1cf7fb02c71b05U, 0xe3a3220dccff07efU, 0x9607fb191003ff1bU,
  0x201fa810514e929U, 0xf5fa0fbff4d829dcU, 0xf31320ebff21f51dU, 0xfccdebd90a0d06a8U,
  0xf1e8dfc3de25faf9U, 0xe3ec0711f3150b0dU, 0x810b62705080bf4U, 0xcbfa10de31fafb07U,
  0x1e00e9222d030615U, 0xf818be27ea040934U, 0xda0cf5dcf00a2afdU, 0xf417d3053a1e1af6U,
  0x20210c32db0bf9ffU, 0x153103273105c40fU, 0x1a190dedff1f1936U, 0xdef60924fbee05ddU,
  0x243eed0426031913U, 0xdec706ebfb0614f1U, 0xf6f206121b140cf2U, 0xfade13c70d0910f1U,
  0xd91dfad0061618deU, 0x20af2150de1dc00U, 0x16e043f910fd0808U, 0xfae5f2e84b0502fdU,
  0xb48e8fe49e6f0efU, 0xf3e5d031ea02fdf8U, 0xc2f9e7c21dfa03eaU, 0x2715ea0a581d1ce6U,
  0xfdd2f214ee1fe01fU, 0x3040fffeb17e702U, 0xe0b22fe22291113U, 0xf709f6da2df119e8U,
  0x2200e1f703f80702U, 0xae516f200c0291dU, 0xdfe7ff0231f21cd9U, 0xcb0814d607fef82aU,
  0xf40df5c52e081a12U, 0x15ec1e1913e2fdf8U, 0x8e33a0beb08162cU, 0xe324030323fb1238U,
  0x3205ece5ef12eb05U, 0xf6fc0ced06fc23d3U, 0x80dd5cee015fae4U, 0xffeffb143b23ef01U,
  0x3404fb0bf207d222U, 0xe613f7e006e6f10cU, 0xecf7131eedfefc19U, 0xccfed91cebfc04daU,
  0x210b04fc010e101dU, 0xfed039f132dc0df2U, 0x15e5f5f61f0113eeU, 0xc3f200fd1120e608U,
  0xcd0108dbe315fce6U, 0x23ee0f0f0a100508U, 0x1f0a23f9f923121aU, 0xea0a081632eb1a2eU,
  0x330c12f7de1512e1U, 0xfd06fef22319f5ecU, 0x510f1f2e6fbec10U, 0xf2f3db072d090224U,
  0xd40cbd12e7020b28U, 0xfe02fc0f30ecdbeeU, 0xcfd11f03610fe1dU, 0xfa19f4f2e3f2edU,
  0x1ffc10df25fd0c1dU, 0xe20111f71af01a10U, 0xd2e9f33610df1be4U, 0xc060a0111e7f41cU,
  0x72530031a2212f0U, 0x7f0f608e713e7eaU, 0x8fe3900da211730U, 0x2f121d60eccfc45U,
  0x13262e0bd015f0e9U, 0x141e2903210214eeU, 0x1816c8272453161eU, 0xeb17221125fc1be7U,
  0x2efe1411f6201d00U, 0xff01d11c3bfb0709U, 0x25e0160cfaf705e9U, 0xd714de1106e1e702U,
  0x10fc03bee5001905U, 0xfb0817e802fc0526U, 0x9f9f707283b03fdU, 0x839f8371624f406U,
  0xe511ff0a15193909U, 0x1216ea1bfb071300U, 0x10ec4120e836161bU, 0xe3fa11e738d9eb12U,
  0xfded2cf9e206fbeeU, 0xf8f823fc071719fbU, 0xd717dc13f917dc17U, 0xf8dec5ba202e36efU,
  0x1cc30cefe0130cf9U, 0xf618dc190bddf9e8U, 0x7160e06fe0adc1dU, 0xd9f8ea032bd20c0dU,
  0x153ff0d1f3e70c2cU, 0x1ef714eafd02282cU, 0x504bc33341bf6e0U, 0xfbc7e8cd1ed6f0fdU,
  0xad3f7fdf61418f8U, 0x25e5e9ec0910ed17U, 0x25052c34d2321e16U, 0xe4fe24e12dea0711U,
  0x1de4e50220e1101dU, 0xa2320072eeffa0cU, 0x1a29e9e7dc2be932U, 0xf4fff1fc341b2fefU,
  0xf9021233d515030fU, 0xf812e8faed11e2eeU, 0x3303e3f2e816e90dU, 0xe1eb0dd202ecf52bU,
  0x24fcfcf7ed11f5f7U, 0xe30a25280bda130bU, 0xd9f0dc07222522f1U, 0x6e90e0811d60800U,
  0x80d080dfb070d24U, 0xece8f20bebd3f015U, 0xf1d954f6110d1922U, 0xf3fe360115fa0002U,
  0x80be817fe0620ddU, 0xc272d001dece3f5U, 0xf234d4cf2afb23dcU, 0xe1f3bb133227221cU,
  0xf5090be3eae0e832U, 0xf3fc03f3fa0fdc03U, 0x271614f2fdfd09U, 0x361a0e1102173abfU,
  0x414fce8fc16e509U, 0xf1f810db15cd1d17U, 0x21c1f2d91b05410aU, 0xfa0f4f000a20f3fcU,
  0xd4df0defb082c06U, 0x1bf92b3006030322U, 0xf9eb5503cd04e626U, 0xf9e5182619f605f9U,
  0xbd52000040738d8U, 0x8281e1515fbe913U, 0x35f3f1190815001dU, 0xef9cf1917280ef3U,
  0x41bfff0e417261dU, 0x8e9220921e2cf03U, 0xe8fa1a1c1712fb11U, 0xd4e519d80405140fU,
  0xeb041c0f1a15dc13U, 0x1c1ee8c9092c0c0bU, 0xd606ce2b272332eeU, 0x2a4920f911bbf9f0U,
  0x2e062310da08ef0eU, 0x1ee2c8e8eb19fee4U, 0x2add45180711f30bU, 0x1a120e051dcbf41aU,
  0xf9e3e493ffc42204U, 0x4fa050ee51403f0U, 0xef9fd114ebd5ece0U, 0x1916ecb3ce09d8fbU,
  0x902e9d11408a7e2U, 0xecffe4d8f8f9fcfdU, 0xd4e5df0b1012adbcU, 0x1fd000d934faff09U,
  0xf8202818cae11d02U, 0x1d0201ef12ee03feU, 0xbffdddad8f2ea20U, 0xc70c100f0dd6f303U,
  0xfe03dbdeca10fb01U, 0x2e14f90a1613dcfeU, 0xe5d1d424f22307ceU, 0xc8e4d60401fafcffU,
  0x21eec022a381ae4U, 0xef0cf824ecf4051dU, 0xf82302d82c111e15U, 0xdefab7cd0f05c927U,
  0x1eec13cbf1e5fb01U, 0xfd3b07e2fc321704U, 0x23f21216f4d6032fU, 0x30ffc431e0c3be5U,
  0xf913c4e71dfa0426U, 0x81add4e4fb9ff1fcU, 0xe9ff0a100f0f02fbU, 0xd9fec2fa0814a111U,
  0xe26fe04e4fbd6aeU, 0xeb1042ece6f30fU, 0x17e91e08fd05f9d1U, 0x3ff71800081518dcU,
  0xfe14d0ee49e5f3d5U, 0xe7e922dee8220cc7U, 0xece7e7a9dffffccbU, 0x93bed9b1f003809U,
  0xfde51bef0918e703U, 0x2c1402d0fafd1b1bU, 0xf303f0c7040626fdU, 0xd5ddffe4ea16dfecU,
  0x15fed4bffbf112feU, 0xdc0019f1f1c611d8U, 0xe5030cfb01c4fff2U, 0xfcfb0ad519f42532U,
  0xbe1428c1d7020efeU, 0xd6100625faad0ee4U, 0x27132c33cf1001b4U, 0x11fbfb0de50216f2U,
  0xfecd1e0a082bfee3U, 0xb11c25ddf40bfe34U, 0x2ffdf1efd0b021dU, 0xf3fd13e121f50c05U,
  0x13fd21260d102b19U, 0xecef0cf21522fc13U, 0xf1210eeae510d71bU, 0xb41404291a0b29ffU,
  0xeae0a1aadcab06fcU, 0x1b07b6ea163ae901U, 0x1c290bfbe7fdc507U, 0x10f0c8e5fe2309ecU,
  0x20072827220013f0U, 0x9fcbceb1b1c1f05U, 0xbda13152c130bbcU, 0xafed16def4cff00eU,
  0x2d5d226eab33f06U, 0xbd303d8e902e025U, 0xd70311d49705d5f4U, 0xdd07de111e121f00U,
  0xfd0a1cebf40bdc2fU, 0xe3f9dffd10b30126U, 0x10fc13d3200bd7U, 0xf31410b7f6090018U,
  0xf40bb5ede7ffed21U, 0xd4ff32ff02f0f9ffU, 0xe203f50a26fd2d24U, 0xdfe72ebf11cdb311U,
  0xd0cc1eebcfec09c4U, 0xcef8f8ef3008e3f1U, 0x1dc71e17e2e604fbU, 0xffe5c7badb0cd8feU,
  0x3a29ea43180325f6U, 0x303fc18e603e2d5U, 0xe9e7f9de270e1cfcU, 0xe7d4d4f80a09ec39U,
  0x12f61bff1715ffdcU, 0x207efd10a11cfe8U, 0xf5f316482ffd0b0aU, 0xff05035becf2feeeU,
  0xf402ddf7ee2af62eU, 0xb7e40cdc17ec07f1U, 0x1e011ef30433371aU, 0xc9c4fdf41130061aU,
  0x10e0ce2d2fefa03U, 0xeed025e921e104fbU, 0x70419e2e70aede0U, 0x3ff50ba7e2000522U,
  0xdb0dfff415ed17eaU, 0x32e7f62224dfebf6U, 0x3d0f2e6ec1ef3ceU, 0x253f0ac10ffee00aU,
  0xbd21c315171bc81dU, 0x6de03beccecdae1U, 0xcefd103a040eb0f5U, 0x131deb07fddef921U,
  0x9e8fe3e04ea04f2U, 0xe2e823f7fdd80b1aU, 0xfa1610e205f60d04U, 0xf40e15172eff2b14U,
  0xecf111f3e9f7d402U, 0x4150212f6dafff1U, 0xf4140108e9e30829U, 0xef6fbe6f3d7e60cU,
  0xee3806f0413b221fU, 0x2b01d32b25ed2330U, 0xee2508f416f8160aU, 0x1b031efe040ff90dU,
  0xcef8ea0a0a0603f0U, 0xfc23eefafa2ae3f8U, 0xfa210aec24efba1bU, 0x15ce09171bef1415U,
  0x1e33190812ce9c19U, 0xfd0ddffd4efe26d7U, 0xe7f7100f4916d508U, 0xebe5d7021a0d0a21U,
  0xdc311508d5e2e7f1U, 0xe2f40520db0d1719U, 0x1231fce72d0e211eU, 0xc6e1053820e4ef05U,
  0x1116edda13f1f92dU, 0xd1bffff0d1645efU, 0xba11eab40df6ccc5U, 0xe401421f1cd2fdfdU,
  0xcbdfa050e00f80bU, 0xef9fd21f5fffe18U, 0x19f503edeff3faf7U, 0xdddadcfc10e2cb02U,
  0xff0efce10ad7f206U, 0x3702fc20d8dce933U, 0xefd33012341dc00aU, 0x9e4e9c90f06fd36U,
  0xd1ff0fd8de03fa0aU, 0xd8060252e9dd1ae9U, 0xc3c12e9f5fdeff1U, 0xd81df3132ceff8f5U,
  0xfaf90bfe1c1b2a50U, 0x3109fc0908d92b0aU, 0xfde708e81aec2aU, 0xe5224a50fe240deaU,
  0x20e3f2eed6ed0222U, 0x1f3002323e133f0U, 0x2c28073ae5fa052aU, 0x1e906200ed7ec24U,
  0x2f0070afa0cec1fU, 0x11f5c2e72729e3f8U, 0xdbff0e1bdce2ca11U, 0xff1ecf51901e526U,
  0xf0faf808e1e3dd04U, 0x6eee0ede2f6fce1U, 0xa47042319e30b12U, 0x108123401da051fU,
  0x34c6f1d42debe30cU, 0x1ab315da1405cf0bU, 0x9cdb9c1bb4da9e2U, 0x1114afd6bf2ae2a7U,
  0xd8e7e0e8b32fbf12U, 0xea3fcf070cec1327U, 0x1aeb0ffcc63a0803U, 0xe7e408fe4e9db1f7U,
  0xfd46afc7ea090d4cU, 0x8bb3d8f3ce235bcU, 0xfdd7ce16230a05d6U, 0x9c0c1c1762c81ed1U,
  0x80314afbf2d1517U, 0xedf914ea1b19efc8U, 0x2fbece53ac5b53eeU, 0xc208eee3a8cb20U,
  0x202503d3042d14fbU, 0x37d8252e10fb02baU, 0x1631d5020c403308U, 0xfb13171d483d3906U,
  0x4e00f7f5f42c2d54U, 0x383fcd0c5e0bce04U, 0xf51a54271c37f535U, 0xc0fec1a2f9b15eeU,
  0x1b31e4112aed0d33U, 0xdaed1a053b233803U, 0xedcc071e1fff261cU, 0xf16021e682ae727U,
  0xc1c4004d313e504U, 0x4fe063d0301100bU, 0x49e1420a023b4f16U, 0x10d70ee521de005eU,
  0x35c71ae00b18f212U, 0x27e802230ef6b6ebU, 0xb46e2ed092b0e12U, 0x1108faf60f602ce9U,
  0xfa0ddf0eda23eb41U, 0x2b3ea914372cd80bU, 0xf7143a262d4b0526U, 0xffea1ee813d30101U,
  0x1a341c043f052143U, 0xdc411e127063e0dU, 0xcfb22230f21bf0U, 0xf4fb3e2e5015b8f1U,
  0xe052d0df02f35e9U, 0x16d2f5ed3d0bbe09U, 0x4e9333deb435901U, 0x2f5061e2dabeb37U,
  0x4fea0ce9e408179dU, 0x10d4151820fa15f4U, 0x39050d0f0b3c1906U, 0xcb11a0523433dfcU,
  0x150bcef8c036e928U, 0x13508e1a35eebbfbU, 0xce4311f749380725U, 0xebd510e63ac7f218U,
  0x6580b12e9e5005dU, 0xb9b2ae625ff293bU, 0xdecf05ef4bda1ce2U, 0xda08fc2c240405ebU,
  0xfe708f8d138f01eU, 0x1cd6f6000b0fc221U, 0x3619391c04377f30U, 0x17e3201aeebe162aU,
  0x443424d0001a030aU, 0xe509ec10c8fc07e8U, 0x492217eb1f6027d9U, 0x5dfec133d4b5e24U,
  0xfbeddb02b9381733U, 0x1c30c6f76b14ee38U, 0xcd2a3ad71324e7fbU, 0xa0d6231338db03c0U,
  0x143bf78d101a0646U, 0x4c9dd0911c2372bU, 0xe1dc16203dd2e10dU, 0xb5f20e0f1b1cecfdU,
  0xd810fcc5df362415U, 0xedf92107030f3414U, 0x3fe32925f5484410U, 0xbcf330e6fbbbfd2aU,
  0x33c81bbe0d1d2910U, 0x2f2725f30ce4111cU, 0x1dfa091ffe40e0f8U, 0xe1dafe0820271b04U,
  0xf211fbfcbf5a2f15U, 0x290aedfe5b0008ffU, 0xc03648e81a440714U, 0xdae90fd441ce1722U,
  0xef21ecb19221a36U, 0xeef8fbe50d032827U, 0xe0bf064c28f50dd5U, 0x23151615303ce205U,
  0x2dc3002f3092320U, 0xe60ae0c1e61e32feU, 0x30f62b2212193837U, 0x25f119ffdaa90a18U,
  0x38e914e200180b1dU, 0x143e3436e3111106U, 0xf0f232031546fa14U, 0xdebbf9f50c322b26U,
  0xfaf6fa0ac33f0a4eU, 0x3f3cc9fc2815d7f7U, 0xe41454da213901e6U, 0x2b01fb2404e011feU,
  0xf0291509fc11ed60U, 0x3925d70b5f14435cU, 0xefa8052f4cff07e7U, 0xeef2229120aedf9U,
  0x35ee1124f4131601U, 0x1b11fde400181f06U, 0x24092642ff611026U, 0x6d9533ce8d3f142U,
  0x4300401beee924e6U, 0xe41315fee30bb00cU, 0xbfb0211fc460921U, 0xedecfdf8fb1a1423U,
  0xc604e119b15c0743U, 0x211faaf15204d40cU, 0xfe453fc01a2fde1dU, 0xf3df01e21ebad21fU,
  0xd33b360a2300df61U, 0x70021ff2f033d55U, 0xdb8e33431ab1815U, 0xe2529161df40efcU,
  0x111bf824df1c391cU, 0x240f03b5f93d13faU, 0x5be20a4bce3c520fU, 0x7dd1821dabe0734U,
  0x4a220ff9edf603c5U, 0xd6e916f8a51001eeU, 0x1209f9e7f5291b15U, 0xe0d0e4ae162c3805U,
  0xfadef0eedf4c1e55U, 0x110ad1cc41ffb616U, 0xac1f26fd0f0ff3f3U, 0xcbf8e71d0ddef1e9U,
  0xf92e12cbd2350b3bU, 0x6fdeafb50202c27U, 0xe8adec331403ee15U, 0xe3f1f6fb1cfaeafeU,
  0xf4eb04fee7292ac2U, 0x16fd36ec02ff09ffU, 0x24f71d06f14c3a12U, 0x17cc3e0ac5b41443U,
  0x47e311371fe5fed4U, 0xdfeb1af5d708ebd5U, 0x3d0033c8181209e6U, 0xe6bff2c909212c19U,
  0xfffef6f1d12a0b58U, 0x1e76c2bc4b20c607U, 0xbb651ed7311ad5e9U, 0xd5f201232ba80cdeU,
  0x4b05d2e921093dU, 0xe3c0e0cd38161a20U, 0xddceef1915c50605U, 0xcee7052f102ad81fU,
  0xf2e0f3fcf0322bfcU, 0x2ace2ec01d310327U, 0x17f234370a282810U, 0xedd559c1c4f1fc4fU,
  0x19f4c522ff0d2118U, 0x25fef234fa03040eU, 0xfa13ffdb140f041aU, 0xeec2cc1f143a17faU,
  0x38ff1b01c935e928U, 0x1739fd02ecf3140dU, 0x22041c220419120eU, 0x26f406e91acb1deeU,
  0x12302024212ce738U, 0x40ce0d0920ca09dfU, 0xc4efed044a311e06U, 0xf1d70bc7fdf30b15U,
  0xd0bef0df0ffd735U, 0xdee5e42efa0df741U, 0x20e9140207110e19U, 0x14db300321d6e204U,
  0x301ceb0301edfcfeU, 0x3df7ddedf5f3d904U, 0xf72dccd00a170e06U, 0xfa02c5ceef0824f2U,
  0xe6fb04d5c4140804U, 0xd5fdeffe25e5ffccU, 0x13262727e2081a17U, 0xa20ef4221ad5f3d2U,
  0xf122d9c20e400707U, 0xf50219ce06cb21f3U, 0x6d5191130b4e1f5U, 0xfaf20be813eeb3ecU,
  0xe8f814f5f60bc7f7U, 0xdef80237ceaff1f6U, 0xedbec07f4241f22U, 0x30127fd32e00d10U,
  0x1a2bdcff09280a15U, 0x132b07dadee8fb04U, 0xec1fe9fe12180e01U, 0xddf2ff0bea1111ecU,
  0xfafe2be6ca200826U, 0x300dd6fd0b07ff0fU, 0x536f1e6c424fa27U, 0xf3080ce123f506dbU,
  0xeb0ee4ce1beaec1eU, 0xec3ffeb52302182dU, 0x11ed0d2f250aebf4U, 0x4e4f2fa02fcb5fdU,
  0x633f303c111cbe1U, 0xea2014e9f9d910e5U, 0x250be522100b240fU, 0xddf1c182bfa3420U,
  0x12e508ea1c130becU, 0x20e91dbbe51cf417U, 0xf7eccd3cfd0fe211U, 0x8dd0601f12230edU,
  0x2e132301e90d1921U, 0xb22ebe014edfe05U, 0xf326181df829ff0bU, 0xeb0d1cfbf5f42d10U,
  0xce1bfa03d6f4022dU, 0xe5ebeeb5342a1b1fU, 0x43edf910060a2206U, 0x7d7b9020bf310U,
  0x6c2101de0190012U, 0xcf08f5ff141af52aU, 0x1eeff90f0f1d132cU, 0xae60d0d31041df5U,
  0x20e1e4fe1bf2ecc1U, 0xe7e2e4d3f5f4e0f7U, 0xd6fbead8b9200edaU, 0xd82ed5100806f0f7U,
  0x31c16eaec2dea24U, 0xf214c5e306d7e5fbU, 0xca2cf500ff23f6e7U, 0xc9f913eb22f20dedU,
  0xf915e89712f0061aU, 0xe90f08fdede7270dU, 0xc1c7fb14fc113adfU, 0xec0f1ed1f8b2e1deU,
  0xfd0901e402e5f224U, 0xe7de0bf113f2cdf9U, 0x3bea080a02270e25U, 0xd0dc38102dd1ee0eU,
  0x382c18bcf533e414U, 0xf40e02fd0efd0d35U, 0xdcf7301225221811U, 0xfe20e51a040d14fcU,
  0xeec06fdd0041717U, 0x32acf091835f5dbU, 0xff2018f6e9200138U, 0x8607f9020cdf0e10U,
  0x616d0ab1c02e51dU, 0xe50efc0a2c0901ebU, 0x49e51b221e211affU, 0x5e5f0d7f11aed09U,
  0xf52d33091c17fce8U, 0x25e3ee33db072601U, 0x11110b1af60d0b17U, 0xe1e116cf0fe70a32U,
  0xc1506cd0ced13f0U, 0x15f220eff50504f6U, 0xe5fe54ecf8fcedfeU, 0xbf1bfd1bec1f0a09U,
  0xe0f3f505d0270424U, 0x332b4312ee3d7feU, 0x250707f3f81fe5dfU, 0x87ff1a2610d605dfU,
  0x82c9ca9ee082d1cU, 0xd408ed1b0ded0815U, 0xe6d21d1e1d3702ebU, 0xe50509f20fd6d218U,
  0x230401dc300b1deeU, 0x2e060c2affd804eeU, 0x26fd093af93d3bf7U, 0xe10800a726f1eb30U,
  0xc430eb0f011dc2aU, 0xfef8fc2dee1ff412U, 0xf12350140b1029f2U, 0xe80d13f0ec22f621U,
  0xf80026f1d9241cffU, 0xe623f8ed242c0300U, 0xbe27fcf21227053dU, 0x9cde000232d4e4f7U,
  0xc16b78133eeeb18U, 0xd606052f110f2229U, 0xfcd90e2b29dbd706U, 0xa09f5ec1642f409U,
  0x7ff0815122307c9U, 0xc000f0b05011ae7U, 0x22e70a0f14340311U, 0xfae9fb9e0bda0b10U,
  0x30fd30d810d3cce7U, 0xf20bd5e6e00e0ef6U, 0xfcd943fef42ec313U, 0xd8f6f41e003029fdU,
  0x1dfc0cf2cb2c2d24U, 0xfa0adc0f04eb0f04U, 0xd51919e7e425c0dcU, 0x88ece24e13e3e6d6U,
  0x929c594e7def50fU, 0xce13e930182a1722U, 0xf1f223fe10f8e808U, 0x11f3f7fdf5d2dc0eU,
  0xcf119073135e6dfU, 0xfb0d01e2faf306cdU, 0x3a15f037ef131ee2U, 0xd1030dda12dd0e28U,
  0x1f4118c11309d2f3U, 0xd308fc14ec0116dbU, 0xf10d3cd815091b1bU, 0xf01fcce3fb173414U,
  0xd5ee15f8e42f2208U, 0xe109b921142de5eaU, 0xe72d0be61119c512U, 0x9c0611f511d6e4ebU,
  0xf2394a502e1e80aU, 0xc9fdd72d542b0611U, 0xb9ce070119bbe3ceU, 0xdf138f5ffe9f40cU,
  0x203adef40408fad3U, 0x2eea4db506e015eaU, 0xdddff24082f1ceaU, 0xe4fd47dc14d80332U,
  0x100e1101150a270cU, 0xef200033020a0b1bU, 0x1b19d71905001a0bU, 0x30f08194d340624U,
  0xed251211e5221410U, 0x52adf05421dffdeU, 0xfc2024ef233525f2U, 0x13e625da08091f0dU,
  0x411c28360b07f9f8U, 0x90de2d9250f18e4U, 0x6cd020b330a0af9U, 0x9160519cc14c53bU,
  0xd10081928210403U, 0x8fef6f10d0e001bU, 0x283549fb2d012119U, 0x9f62e32fbe9d22cU,
  0x1321279cf8f5ed22U, 0x4f2105f90de9ede6U, 0x5130f240700e709U, 0xdf3efbf82259ecebU,
  0x15fb04e9d0051403U, 0x1822f60d14e6e8e5U, 0x5f53e55ef26011bU, 0x605cd1421dac7fbU,
  0xfc1bf9ff0c33fa06U, 0xea2cf1f91f182d07U, 0x13ef211d28f3f3daU, 0x101bdf01e2f719e2U,
  0x1bddf513cd1bf2f5U, 0x130ef609030107c9U, 0x13000937e43c222aU, 0x16e81af90fde0025U,
  0x16cd19cb11e4241dU, 0x2213021117f00dedU, 0xfb06151bf128201dU, 0x25ddf507250e3617U,
  0xfde5f706eae0250cU, 0xafedc1b07fadef6U, 0xdc2f18de203aec14U, 0xcbc8e4f820e9dd0bU,
  0x21e00e9e0f1f13aU, 0xff2213fc22241506U, 0x9c70f210b13fef3U, 0xcfaf31ae82f21f3U,
  0x7ec011deb28f22bU, 0xc1cede1f9feffd2U, 0x28220925b7382828U, 0xa516323b0dd41a1dU,
  0x42fa2212fc15fce8U, 0xdcde0aee1d09fbe1U, 0xf7dd180e1121fcfeU, 0x2ca04f0282b1b05U,
  0xddf3f8defd36fd1aU, 0xf425cfe12700f6f9U, 0xd62018bff026df14U, 0x1ef4fc133c01e505U,
  0xe20ecf3e4db0535U, 0xfc06eb0630f31c1cU, 0x1fd804021f0816ffU, 0xafffb07fdfe1540U,
  0xfd02efeae500ce1bU, 0x10011bf71319fffbU, 0x2f020c15fc222d0aU, 0xdf2104dd08e5ea0dU,
  0xfeb0703faf3f8bdU, 0xbd04ebfbea080516U, 0xfbeb09e9df33f3f2U, 0xf8cd00ac232126f2U,
  0xe7f8d4f7ea20190eU, 0x2c03c71526e1f510U, 0xa62013e30d32cdfcU, 0xf003030f2cedfaf6U,
  0x2b08d3c616c51d28U, 0xeefa2a162a00061aU, 0xfed3f514070315d5U, 0xd7f11bfffefa0333U,
  0xf3f505fdfbfef3eeU, 0x2e7023313ea01e5U, 0x2b26062ef8001313U, 0xebf818bdfabfff33U,
  0x170205e91bff02a8U, 0xd82e0c01f3e32e16U, 0xfa020b0717170a03U, 0xf8d8e4e1292b0b21U,
  0xeff409f8e7191a23U, 0xf240daeb1a0fea1eU, 0xce0c1de41d0bb2fdU, 0xecd310df2afc10feU,
  0x1921e1ae09b30c13U, 0x1f2bf51835e71319U, 0x1cec17062710fef9U, 0xfe021002f0f91726U,
  0x1d1ffdeff83af7e9U, 0xefb0414f5fa150bU, 0x14f61c16fc271706U, 0xcefbfcbd0ec71e25U,
  0x47040bd9082018d6U, 0x2fc37e3f5ea1ad3U, 0x13ddfb09fc29fedbU, 0xc7eaf8bc2f322504U,
  0xffffee2bc3301230U, 0x621d50910131c08U, 0x9213fde0de198d04U, 0xb5dafc0c27cdf8f9U,
  0x16fd03c1fa14032aU, 0xe3e40f2a4ae4ec2aU, 0x2ee3f3423626dfe2U, 0x828e009faf9f602U,
  0xfdfc04182d3bfbebU, 0x6e9ee28e61efc19U, 0x1a0519201c0d39f3U, 0xdbf817c102dbe611U,
  0x3de40cf1f10acde4U, 0xdeeac9e2ff1f0005U, 0xadd11e409121510U, 0xe1f5e0b727130716U,
  0xf11d241dd01cf50aU, 0xfd22d3db132417c4U, 0x82502de61a11dae2U, 0xe9e011e82bf71aedU,
  0x292df6de02f7e025U, 0xfa17102c39ce1234U, 0xcae4323ce1fefbU, 0xe3f12fedf103f315U,
  0x121bfce316180ffdU, 0x40fe17f6f128080aU, 0x32fb0f42e7f929e5U, 0xc0121aaedbd9f948U,
  0x37f60ff2131e00f2U, 0xd1117eb0e0bfad7U, 0xfffe83312300918U, 0xfde61d1528421212U,
  0xf611020dd4101015U, 0xe735c325240726eaU, 0xa62631d33942befeU, 0xe5e0f6fe09eefe15U,
  0x280614e3e6e10606U, 0xb1f150f234710U, 0xebe0f2d1d0d0aefU, 0x150f0b0e054019e9U,
  0xff2f9fe38211910U, 0xaeff6020ff30517U, 0x340d050223441ee4U, 0xfdf017fbebddd12cU,
  0x28efeeda1feafbd5U, 0xd8abde0ec90d0700U, 0x1bde21c6c32bfcddU, 0xe60e0b0339260e04U,
  0xeb1ecee9bf0bd529U, 0xff27c3ea3bd33ee9U, 0x9e130de3ee20afe4U, 0xdc02007f28ebe40dU,
  0x281e17d6d9f72e3dU, 0xfe725071a06261eU, 0x1cef7082019edf7U, 0xdf2ee02403e62f0aU,
  0xdccdefd90e08fa05U, 0xe8dcedfe3f18c70aU, 0x30f40f041b1421e7U, 0xe7f233f0f8dfca3cU,
  0x2f8ea0afd37f5faU, 0xfe00051011f01417U, 0xfa110308e60be321U, 0xdab71f17030907ddU,
  0x709343ef82c0c23U, 0xa05c9e62d13100fU, 0x29f1303e53141ffU, 0xdace18d043d33c15U,
  0x180b05fbed0908fdU, 0xa0a05300b0105e5U, 0xf510dc1843e31cfeU, 0xbc409a910ca03d3U,
  0xcdb1815c432acfeU, 0xdb1cd1d910f9f512U, 0xafbe526dfe7fbU, 0x8f751e521df0525U,
  0x260f2f3dd8ecdec8U, 0x2ff5fdf1dd2321eeU, 0x607eefb1e0417d5U, 0xe2e9e9e3e60d21fbU,
  0x9112accd710ed2bU, 0x113f8b20efa04f3U, 0xe100923df1813f7U, 0x42ea2bfa0cdb1e0dU,
  0x1103fe372c18ebe1U, 0xd9fa22f01cc83103U, 0x506f34d0ad64fd5U, 0x8f52bf00aee02daU,
  0x12e5f9f6d6f59d23U, 0xfff601d11f093107U, 0x1402020f0dfa00d0U, 0x4ced2feaf0fafc41U,
  0x2dca3b81fd22bfe9U, 0xad4e33c70cea530bU, 0x15e31d0ff425c806U, 0xe3030db9e51123f0U,
  0xda280cdeec050cf4U, 0x12be523e2eef817U, 0xaf060ee8fb0da20dU, 0xeefe71515eefd47U,
  0x32cf40327c001fbU, 0xc54e00e5111d29f2U, 0xf5dc072526d013ceU, 0x491dcff8300c12d2U,
  0x4a152b15ccf0f5d8U, 0x11f7e3c7d01e39ecU, 0x110d07f60d2a34f6U, 0xaa1645f2f3e512f7U,
  0x5f12cbfefe8bff5U, 0x973f16e6001c0011U, 0x2c31823072adb00U, 0xd6e638e2da1708f8U,
  0xbbf6ddf7ef021713U, 0xc33db0f20efe7f5U, 0xdc0819be1c0db4bbU, 0xd617cc06fed4a30fU,
  0x1fadef6b0b6f80aU, 0x23b03f729274afbU, 0x4ac30b0912eed711U, 0xfe47e2181b25ee00U,
  0x13f8c41aeb0019d9U, 0x21e20632eb2d10c3U, 0x3100fd03f94b08bfU, 0xa208371bf1f6150fU,
  0x24eefbe9ffdcd1ffU, 0xb60e10f642f3c505U, 0x3142015f1ee0626U, 0xc8ffc7e2e5e7380bU,
  0xa9eaf813fc1a2ef1U, 0x221bdc29ff04dbddU, 0x20154dcef0f8b7f3U, 0xdad5fa383fde9808U,
  0x1724e301cd99df26U, 0xee18b2f612380218U, 0x8e8fff102defac8U, 0x1f01fcfb0b1af6fcU,
  0x7230f31e20634e1U, 0x31e1e715ff0e1ce5U, 0xecaeeeff71f3bbeU, 0xacd619e025d82b13U,
  0x6134fcfb32faf60bU, 0xd2f5fe1647f0d90aU, 0xe41810fc1d261102U, 0xf01eda00e73606ebU,
  0xfd15fe1cda161b17U, 0xa2bda20041ce4feU, 0x1d4334f4111319f5U, 0xa19fbc715c2f1e0U,
  0x1738d01bbff7c827U, 0xd715f0323615fe17U, 0x11f5ea58110ccd2aU, 0xf1f725ef0dbf00e3U,
  0xf6dd15051b2e1218U, 0x251e0d011cec08f5U, 0x25f6e11a072536caU, 0x1db2ebe18dc1b47U,
  0x2302ddc8ea02ddf3U, 0xf7f4dacd0617ebf6U, 0x23f5f4c30623c8e9U, 0xc518ded0e22f0603U,
  0x4ff90c10e41de00dU, 0xec26dd14f0f8b51bU, 0x2221005eb11f601U, 0x17ffe61944c4f4eeU,
  0xf30ed3ffd61af919U, 0xe4bc300c08f4400cU, 0x32e3002c2de7f91bU, 0x1ddf1dcf3b1e00e4U,
  0xf5e107051fe0f5d3U, 0x4291906450807feU, 0xf420f714272b2bb7U, 0x1bf3d5cb0ee0e910U,
  0x1e0018d2e93bdfe4U, 0xd3faf00243ed18b2U, 0x24ebdf01da05faddU, 0xb71608cdf037ff16U,
  0xe905d3f1da291345U, 0x283df5fa21f7ec36U, 0x363c10fc2e16e2dfU, 0xc8efee2423de0104U,
  0xe724d6d7e4151c04U, 0xfc180dfa0d0d24f6U, 0xefc719132716f8e9U, 0xfd100916340dfbfbU,
  0x32f91106f70613c6U, 0xf11410e3d6cbf723U, 0x218ef1f1e2115deU, 0xae0446a205ca1613U,
  0xf4c19d3fa1ab6fcU, 0x20dcfbdf23b9fdf9U, 0x5613d7300cfe0614U, 0xec3627f7e2393505U,
  0xc72bea14c1090600U, 0x2230f804260a3eeeU, 0xa1d1bfcf42a0fe0U, 0xb7f61aec31c01539U,
  0x1515d2e63c11091dU, 0xe22de3f819263828U, 0xecea252b1534d21bU, 0x1f27080b0700cfeeU,
  0xf5fd2afff31735d3U, 0x10002cc2fbfb1aedU, 0x10ee3fc453736b6U, 0xbe903f524d61b09U,
  0xf0e38e1f1f0e3d1U, 0xf202f8eb3dd8093eU, 0x29fff4280debd019U, 0xd51c1fbbf228feefU,
  0x140f3806ed1c6206U, 0xebeacefd39f0170dU, 0xd2222efe91ed3e7U, 0xba00002518d6160aU,
  0x220996ad070ccd11U, 0xcd44cffa223d080eU, 0xdbf452ff4335dbf3U, 0x4ae2fc0c320a04e0U,
  0x4e00f833fd2e2afcU, 0x20ef02e7142054f2U, 0x2dfae614451b19dcU, 0xda0123d815d91b3dU,
  0x13fa06100af0f400U, 0x19fbf8e70913f011U, 0xde03e60aec17e719U, 0xfe001100fff7e6f4U,
  0x1e3fbe5effd0016U, 0x16f903f21205fe10U, 0xf2fdf214cc040af8U, 0x207eff81209fe01U,
  0xf6130eef0e0df0U, 0xdc05f3d6f61cfce8U, 0xfeedf3fd08eaf9e7U, 0xaf6fcf5ffefe909U,
  0xbfffe05d5feffdfU, 0xef0805f7120bf3f4U, 0xf011f40000f124U, 0xf620041306f90cfeU,
  0x8cdfe0cead8e7f7U, 0xbe008b7061d0928U, 0xfcf9f30a941e9afcU, 0xf409f8f7eaf2fbb6U,
  0x4ff052419fce615U, 0x2f7fde8fe96e900U, 0xc17fdf4aae5f0e5U, 0xe070bcef4fe1017U,
  0x4fc00fde1e6e8e8U, 0x12071ee30bf30003U, 0xe611c2eff1ef30f1U, 0xfe0c18f906810caeU,
  0x12c80b1ad700f511U, 0xf20ce3eb1832e70cU, 0xe9d7f8f7fafcf60aU, 0xf6fa0610f0fd0ef7U,
  0xfe0fe9f804feed0eU, 0xa1af3fa1827f2e0U, 0x304f1f11b0f03eaU, 0xfefde60e08e40110U,
  0x4e5f8fc0ffeed0dU, 0x30f0c081d1fe004U, 0x1d05f80312fd1b08U, 0xf20ddc27fcf8fbd2U,
  0xc17effff4fffff8U, 0x18ff0dec02d3f212U, 0x6151cfa1d10f506U, 0xd9dd0ff50518ef1eU,
  0xee1b04eff80f0801U, 0x19fb1e22dee602e7U, 0x7fb07fae6e8ee16U, 0xc071307f80eee08U,
  0xff60afbfd001a13U, 0xbfb080d1402f9U, 0xf0dfff107e910e6U, 0xf8efef0e0801f318U,
  0xf219ee05f7070802U, 0x322fbf2ff02fbfbU, 0x19e8ff1f1a18120cU, 0xff05110d03ed0bf1U,
  0xdfdf31c2018f11dU, 0xf002f0f203f1fc02U, 0xfe1500f900ff05f8U, 0xfe11ef100810e409U,
  0x20de8f9e4fc140bU, 0x4e40913f2fc06f0U, 0xa0b020effef05U, 0x17000c06fe15e705U,
  0xfcfd0609fe19ff06U, 0x1d0d1e21f4ff070eU, 0xafbee1b09f90f03U, 0xfb0410f60ff70bf4U,
  0xdbfb09fff51817edU, 0x19ee050400f50121U, 0xf70a00fe0a09f6edU, 0x1715010811f2f207U,
  0xfe04052bf4fef7ffU, 0xf10dfce9fc0707f8U, 0xb100d16fe02e6f8U, 0x1013f9fb0220f706U,
  0xc0e0a16f50e18f0U, 0xb0afe160d0cf6U, 0x3fb05100b030b02U, 0x605fb0a050114fbU,
  0xf5e6f4caeced0afcU, 0xef91aecf61902f9U, 0xe60af404f5fffbfaU, 0xe4ffffea0ffbfef8U,
  0x5ff0a20f908e80aU, 0xfe020aef04fafa0bU, 0xf2d9feff050bf602U, 0xef06ef0613f5f215U,
  0x8050df900f3eaf5U, 0x108f6fd180cefe6U, 0x150df5ff0de8020aU, 0xfefcfdf201f1fb02U,
  0xfce8e9fdef02120bU, 0x405f20704e4ebecU, 0x1b0f0608e006fd1dU, 0xfb0dedf40414f3f7U,
  0x8fce6fa0bf2fe1cU, 0x5f2f41906fa03e9U, 0xfc0d04eefc020a05U, 0xf0ef04ea00001002U,
  0x2fceffee613e7fdU, 0xe8000409f5fa0011U, 0xe7f5fdf50c0e0afcU, 0xe7f4f30d08e5f8f6U,
  0x7f8f0fef708f313U, 0x7eefd060ee505f3U, 0xff0ada1c00e90404U, 0xe3fb15050d100d08U,
  0xef0307f0fbf8011aU, 0x41306fa12dbf50eU, 0xf01807f3fb00f715U, 0xe9e7f90b000600f0U,
  0xee1ffd15f0fefcf3U, 0xef01f30d0dfa07faU, 0xf3050b07060c0de9U, 0xe0f6def3fe0a01f6U,
  0xfc0d02f6eef2fb0eU, 0xf2dee414fd01fd18U, 0x403fe0900e41e09U, 0x9fb0604f5e80bfcU,
  0xde3e00f1109de01U, 0xfaf8fffcf9f3e7e7U, 0xe00f8ec03f5feefU, 0xeef108031010e90aU,
  0xef0107f91e050501U, 0xf5fb210000f9ff0aU, 0xe02fc0c04101411U, 0xfd00f3de07ea02feU,
  0x721e800eef3e8f3U, 0xf318010b14100504U, 0xf8ebecf7f8f3f6f7U, 0xf62412f6eff612fcU,
  0xecf8fa03f9140609U, 0x609f60d0af5ec16U, 0xeff3de2201f01307U, 0xafdfe07f403fffaU,
  0x4fdee11070a15fbU, 0xe91115f716d10efaU, 0xd31807190dde0cfdU, 0xf600eb04f30405U,
  0x30efcfb02f9fef1U, 0x1fff603faf91a01U, 0xdf7f4ec02f7ff10U, 0xf909f7f8120211fbU,
  0xff1701e9f706fff7U, 0xfb0d01041205f715U, 0xdff903001303fbfbU, 0xe12f7edfbf50803U,
  0x2fbfd03080905d2U, 0x1e0001f8f70e02f5U, 0xefd04f30412f8fcU, 0xf9270b06ebfaeff6U,
  0xfd0be6f007f7e5efU, 0xdb07f303f408ef01U, 0xfcf809f701eafcf4U, 0xfe04f6ef03fe150bU,
  0xa26e81013f603e7U, 0xf9150206d7021f14U, 0xe2f703f7eafa050fU, 0xf5fc03ecf7071b0aU,
  0xfda07a8ede0c4c2U, 0xf6f90b0b08f9170cU, 0xfdc7f215da060708U, 0x12d620e5b303d7b9U,
  0xb2f0cbfe0a021bfdU, 0xd909effdecbc2218U, 0xa6b907f50e0effe5U, 0xddf6fd10f6f1d90aU,
  0xb8f2b2e7d51d2807U, 0xbef1fada3a33f2b5U, 0x1faf8e80725e403U, 0x1b04000deae5d3b1U,
  0x11fa1618c70a0cfdU, 0x4e8f4daf60e0eb6U, 0xadfb70de21423ceU, 0xc7e4ffd0b9043807U,
  0xae7bf031dbc0322U, 0xf8cbe3d8f21611e3U, 0x98cbe4f8be12d2b8U, 0xef6e4f6f504f6e6U,
  0xfadcf13dd12db1eU, 0xf622fcef19d10611U, 0x5dff80dcf2203e3U, 0x22d31206fdcdd4U,
  0xd80dd4fadbfef319U, 0xaeffc0738ab021dU, 0xde09f0fb0adfe0f1U, 0xc5ede601eddafcf5U,
  0xbdcc1bb70b01010eU, 0xd927202ef4be16e4U, 0xe6dc1f0ac10818f8U, 0xbdfeee191cf41feaU,
  0x5f2daea2f2908d6U, 0x24fe142315ea2b07U, 0xec28d2cad2ff2dfaU, 0xf4d3e21f08e806edU,
  0x200d1900f5eab8f8U, 0x2e10a19ee0e051eU, 0x3ce4ff030c110f27U, 0xfc20eee9ff100bdbU,
  0xe50a0b05181b04ebU, 0x27fd3fab23e9151aU, 0xf413bb16422b2f0eU, 0xebfc1608fc041c09U,
  0xe918f6c80b142d18U, 0xe0f8e40afe12f8eaU, 0x10fb030fcd2b05ffU, 0xa191518030b24f6U,
  0x19d6d0ed0317fd38U, 0xd05352a271c16b6U, 0x636eaf9e32205ebU, 0x214fdf738e60b05U,
  0x4ebdcf5eb01b807U, 0xb13ef0515f109edU, 0xf4fac50802f7e028U, 0xedec80e25f7021cU,
  0xeef82c202ffd0300U, 0x30e203e6f4152614U, 0xfd01c3ff0f0328f4U, 0xd6f9eb18ec25170fU,
  0xcdf5e5f224f4ee13U, 0x5f7c63c21ddfa0eU, 0x15002af9f227143bU, 0xfff90c1cfeecedffU,
